<unk>	0
<s>	0
</s>	0
▁t	-0
▁a	-1
he	-2
in	-3
▁the	-4
▁s	-5
re	-6
▁w	-7
▁o	-8
is	-9
er	-10
nd	-11
▁m	-12
▁f	-13
▁b	-14
it	-15
ha	-16
ing	-17
▁c	-18
en	-19
es	-20
or	-21
ou	-22
on	-23
ll	-24
▁and	-25
▁of	-26
▁to	-27
▁p	-28
▁d	-29
ed	-30
an	-31
at	-32
▁in	-33
▁l	-34
ar	-35
as	-36
▁I	-37
om	-38
▁is	-39
his	-40
br	-41
▁g	-42
ic	-43
▁/	-44
▁/>	-45
le	-46
▁e	-47
ot	-48
hat	-49
▁n	-50
ut	-51
▁it	-52
st	-53
ct	-54
il	-55
al	-56
▁T	-57
▁be	-58
ie	-59
▁mo	-60
ve	-61
ly	-62
▁ha	-63
▁on	-64
ho	-65
▁re	-66
▁that	-67
ver	-68
▁this	-69
ent	-70
ra	-71
ion	-72
▁he	-73
im	-74
se	-75
▁st	-76
ay	-77
et	-78
gh	-79
▁mov	-80
▁was	-81
id	-82
▁y	-83
▁/><	-84
ilm	-85
ith	-86
▁film	-87
ad	-88
▁for	-89
▁A	-90
ro	-91
ch	-92
▁u	-93
all	-94
▁as	-95
ce	-96
ke	-97
▁movie	-98
ld	-99
▁an	-100
▁with	-101
▁S	-102
▁se	-103
▁The	-104
oo	-105
▁you	-106
▁h	-107
ir	-108
ow	-109
.<	-110
ri	-111
▁th	-112
am	-113
▁B	-114
her	-115
▁li	-116
▁but	-117
▁M	-118
▁not	-119
ur	-120
▁we	-121
ally	-122
ill	-123
ter	-124
▁(	-125
▁"	-126
▁C	-127
ck	-128
▁H	-129
▁are	-130
..	-131
ome	-132
▁W	-133
pe	-134
ould	-135
ers	-136
▁at	-137
▁his	-138
▁have	-139
ul	-140
▁D	-141
ght	-142
un	-143
ust	-144
if	-145
▁sc	-146
▁j	-147
em	-148
▁su	-149
▁act	-150
out	-151
▁do	-152
▁fr	-153
ble	-154
▁one	-155
▁ex	-156
▁who	-157
ain	-158
ess	-159
very	-160
▁k	-161
▁so	-162
el	-163
▁pl	-164
▁com	-165
▁all	-166
ood	-167
ies	-168
▁ab	-169
how	-170
art	-171
pp	-172
us	-173
▁cha	-174
ant	-175
▁al	-176
▁by	-177
ag	-178
▁v	-179
ak	-180
ol	-181
est	-182
▁wh	-183
ous	-184
▁de	-185
▁P	-186
▁wor	-187
▁like	-188
▁R	-189
▁L	-190
one	-191
▁F	-192
▁they	-193
▁from	-194
▁out	-195
op	-196
ast	-197
▁ne	-198
ist	-199
and	-200
▁some	-201
ven	-202
th	-203
▁whe	-204
▁or	-205
▁int	-206
qu	-207
▁G	-208
fe	-209
▁J	-210
au	-211
▁It	-212
ough	-213
red	-214
um	-215
ation	-216
▁con	-217
▁me	-218
▁r	-219
▁just	-220
▁her	-221
▁about	-222
▁has	-223
ract	-224
ory	-225
ind	-226
res	-227
▁N	-228
▁pro	-229
ive	-230
▁can	-231
ort	-232
▁tim	-233
ack	-234
ate	-235
pt	-236
os	-237
▁E	-238
▁un	-239
reat	-240
ud	-241
▁wat	-242
▁good	-243
ig	-244
ire	-245
ake	-246
▁O	-247
▁charact	-248
▁le	-249
ight	-250
▁any	-251
▁lo	-252
ook	-253
ong	-254
▁man	-255
han	-256
▁get	-257
▁up	-258
▁more	-259
▁see	-260
ich	-261
▁go	-262
▁very	-263
▁my	-264
▁what	-265
▁would	-266
▁no	-267
▁fe	-268
The	-269
ound	-270
ry	-271
ity	-272
▁This	-273
▁sh	-274
▁there	-275
ther	-276
▁fa	-277
ite	-278
▁story	-279
nt	-280
ge	-281
ide	-282
▁time	-283
od	-284
▁bec	-285
▁1	-286
ard	-287
▁en	-288
hing	-289
ame	-290
▁when	-291
▁really	-292
▁-	-293
▁watch	-294
oy	-295
▁she	-296
▁were	-297
▁if	-298
▁had	-299
▁show	-300
▁scen	-301
able	-302
▁only	-303
lf	-304
ure	-305
ci	-306
ell	-307
itt	-308
ink	-309
▁even	-310
▁their	-311
ore	-312
▁other	-313
ick	-314
▁K	-315
▁per	-316
so	-317
▁did	-318
▁cl	-319
pl	-320
▁kn	-321
ine	-322
▁which	-323
man	-324
▁him	-325
ond	-326
our	-327
▁them	-328
▁than	-329
te	-330
▁end	-331
ment	-332
uch	-333
ious	-334
og	-335
ab	-336
...	-337
▁does	-338
▁great	-339
ars	-340
▁pe	-341
ru	-342
ays	-343
▁bad	-344
ause	-345
ves	-346
▁bet	-347
▁much	-348
▁look	-349
ade	-350
are	-351
ice	-352
▁could	-353
ople	-354
▁qu	-355
irect	-356
▁will	-357
▁been	-358
ert	-359
irst	-360
▁how	-361
ple	-362
▁ar	-363
▁over	-364
▁po	-365
▁im	-366
▁well	-367
▁pre	-368
▁think	-369
▁people	-370
ne	-371
▁ro	-372
▁know	-373
ence	-374
▁most	-375
▁into	-376
ass	-377
per	-378
int	-379
▁tw	-380
▁too	-381
for	-382
▁because	-383
ng	-384
other	-385
▁dis	-386
▁ad	-387
▁every	-388
age	-389
▁am	-390
ful	-391
▁us	-392
▁make	-393
ff	-394
ors	-395
▁ag	-396
ac	-397
▁fun	-398
▁made	-399
▁real	-400
▁thing	-401
fter	-402
▁direct	-403
ny	-404
▁part	-405
▁first	-406
▁off	-407
▁movies	-408
▁sa	-409
ull	-410
ish	-411
▁way	-412
ile	-413
ving	-414
▁don	-415
ere	-416
ty	-417
ict	-418
▁also	-419
▁wr	-420
▁'	-421
▁gu	-422
▁seem	-423
ian	-424
ep	-425
ary	-426
▁characters	-427
ap	-428
oll	-429
▁character	-430
iew	-431
▁its	-432
▁mak	-433
wn	-434
gin	-435
▁sp	-436
ical	-437
▁work	-438
▁bl	-439
▁Y	-440
▁seen	-441
ress	-442
ually	-443
▁plot	-444
ated	-445
hed	-446
ue	-447
▁te	-448
ob	-449
▁films	-450
▁And	-451
▁fl	-452
▁your	-453
fect	-454
▁play	-455
ial	-456
pect	-457
ces	-458
cc	-459
▁want	-460
▁then	-461
▁acting	-462
self	-463
▁V	-464
iz	-465
▁ye	-466
omet	-467
▁love	-468
▁aw	-469
ost	-470
▁But	-471
ittle	-472
▁say	-473
▁many	-474
▁being	-475
▁ser	-476
me	-477
ved	-478
rough	-479
get	-480
▁ho	-481
▁never	-482
▁after	-483
▁In	-484
▁two	-485
nder	-486
).	-487
mer	-488
),	-489
ran	-490
▁<	-491
▁best	-492
▁ever	-493
▁ent	-494
own	-495
▁He	-496
urn	-497
ens	-498
▁through	-499
▁little	-500
▁life	-501
▁where	-502
▁back	-503
ip	-504
▁hor	-505
!!	-506
▁somet	-507
▁better	-508
▁rem	-509
▁rec	-510
ark	-511
du	-512
ult	-513
ily	-514
ild	-515
▁i	-516
ever	-517
ris	-518
hy	-519
ber	-520
we	-521
▁des	-522
▁ra	-523
ach	-524
ather	-525
ought	-526
vel	-527
ace	-528
▁should	-529
▁St	-530
be	-531
thing	-532
ction	-533
▁perfor	-534
▁find	-535
ual	-536
▁spe	-537
▁scene	-538
les	-539
iend	-540
ertain	-541
▁2	-542
▁sl	-543
▁scenes	-544
▁br	-545
▁min	-546
▁There	-547
▁feel	-548
vers	-549
▁U	-550
lie	-551
less	-552
▁ch	-553
▁under	-554
erest	-555
ting	-556
▁att	-557
▁still	-558
▁again	-559
hose	-560
▁cont	-561
▁ri	-562
ents	-563
▁tra	-564
igh	-565
ree	-566
▁here	-567
▁interest	-568
▁something	-569
▁lot	-570
ance	-571
ren	-572
ning	-573
ense	-574
fore	-575
▁kill	-576
rd	-577
▁happ	-578
ia	-579
rap	-580
▁inc	-581
▁such	-582
▁19	-583
ating	-584
ason	-585
▁may	-586
ions	-587
ations	-588
ably	-589
▁these	-590
▁old	-591
▁If	-592
augh	-593
▁imp	-594
▁cast	-595
▁watching	-596
arly	-597
▁performan	-598
ase	-599
▁sur	-600
joy	-601
▁hum	-602
▁Al	-603
▁actors	-604
ror	-605
up	-606
the	-607
▁mus	-608
▁funny	-609
reen	-610
ans	-611
alk	-612
▁gi	-613
▁doesn	-614
▁didn	-615
ise	-616
▁che	-617
▁those	-618
sp	-619
▁fam	-620
▁enjoy	-621
▁guy	-622
ater	-623
▁point	-624
▁years	-625
▁gir	-626
iv	-627
▁sim	-628
▁dec	-629
▁ap	-630
▁wom	-631
▁gen	-632
▁try	-633
▁cou	-634
▁belie	-635
edy	-636
ute	-637
▁view	-638
▁makes	-639
ffect	-640
▁start	-641
▁set	-642
oth	-643
▁going	-644
erson	-645
▁fact	-646
▁few	-647
▁tru	-648
▁actually	-649
▁down	-650
▁same	-651
▁pret	-652
▁pr	-653
▁comp	-654
az	-655
▁got	-656
▁Jo	-657
ps	-658
▁ob	-659
▁before	-660
rit	-661
oss	-662
▁thought	-663
▁dra	-664
▁tak	-665
--	-666
iss	-667
▁long	-668
▁ter	-669
ath	-670
▁produ	-671
▁fin	-672
▁exce	-673
oc	-674
**	-675
cial	-676
▁young	-677
▁sub	-678
ript	-679
der	-680
▁Ch	-681
▁em	-682
▁big	-683
▁bit	-684
rigin	-685
▁ke	-686
▁ev	-687
▁why	-688
ience	-689
li	-690
▁now	-691
▁director	-692
▁dif	-693
ft	-694
ang	-695
▁though	-696
▁while	-697
av	-698
ale	-699
▁nothing	-700
ect	-701
aw	-702
▁tri	-703
ons	-704
▁origin	-705
aut	-706
▁supp	-707
ub	-708
▁friend	-709
hen	-710
▁own	-711
▁turn	-712
▁sm	-713
ible	-714
▁new	-715
▁pretty	-716
▁girl	-717
▁another	-718
ince	-719
▁comple	-720
de	-721
onder	-722
▁quite	-723
ched	-724
iting	-725
▁effect	-726
ose	-727
rent	-728
▁res	-729
▁rel	-730
ave	-731
▁things	-732
▁inv	-733
▁around	-734
▁script	-735
▁seems	-736
▁enough	-737
act	-738
ways	-739
▁As	-740
ings	-741
▁app	-742
▁screen	-743
most	-744
▁co	-745
ew	-746
▁hard	-747
▁kid	-748
00	-749
▁high	-750
meric	-751
▁far	-752
▁right	-753
▁need	-754
ib	-755
▁original	-756
▁give	-757
ically	-758
ween	-759
ced	-760
▁music	-761
▁gr	-762
ster	-763
rill	-764
▁world	-765
ness	-766
ign	-767
▁must	-768
▁kind	-769
▁tr	-770
▁saw	-771
▁wonder	-772
▁person	-773
▁acc	-774
▁take	-775
▁You	-776
utes	-777
inem	-778
▁horror	-779
ention	-780
▁sha	-781
ately	-782
ks	-783
▁She	-784
▁between	-785
▁es	-786
ead	-787
▁times	-788
▁role	-789
▁interesting	-790
▁appe	-791
▁reason	-792
▁comedy	-793
▁isn	-794
▁&	-795
▁gets	-796
▁whole	-797
▁op	-798
▁always	-799
▁action	-800
▁sec	-801
▁series	-802
ock	-803
vious	-804
ward	-805
▁least	-806
▁bu	-807
▁put	-808
",	-809
▁sex	-810
▁How	-811
▁read	-812
app	-813
rible	-814
hes	-815
icul	-816
▁main	-817
▁class	-818
▁done	-819
▁beaut	-820
▁tell	-821
▁mom	-822
▁Americ	-823
▁sound	-824
▁expect	-825
▁laugh	-826
ody	-827
▁ep	-828
ord	-829
ma	-830
▁child	-831
▁lead	-832
▁come	-833
▁worth	-834
row	-835
▁They	-836
its	-837
here	-838
▁minutes	-839
▁hel	-840
▁bas	-841
ife	-842
view	-843
▁might	-844
▁almost	-845
▁without	-846
▁sho	-847
▁cinem	-848
ok	-849
▁cam	-850
ully	-851
▁both	-852
▁ide	-853
gg	-854
hn	-855
ray	-856
bably	-857
▁bo	-858
▁complete	-859
▁shot	-860
▁diffe	-861
ash	-862
ines	-863
stand	-864
ner	-865
▁anything	-866
xt	-867
▁last	-868
▁3	-869
▁hand	-870
mend	-871
▁book	-872
▁family	-873
▁entertain	-874
▁performance	-875
ouse	-876
though	-877
ime	-878
▁expl	-879
cially	-880
▁aud	-881
uring	-882
".	-883
▁care	-884
▁TV	-885
▁war	-886
▁An	-887
pris	-888
▁found	-889
ialog	-890
▁begin	-891
▁cle	-892
▁since	-893
▁cons	-894
oney	-895
▁inst	-896
▁What	-897
▁cour	-898
ov	-899
▁el	-900
VD	-901
▁dialog	-902
ograp	-903
era	-904
▁10	-905
▁call	-906
This	-907
▁away	-908
▁probably	-909
▁worst	-910
▁sure	-911
▁ext	-912
▁car	-913
pecially	-914
▁DVD	-915
ail	-916
isod	-917
son	-918
▁sequ	-919
led	-920
ros	-921
ER	-922
ures	-923
▁art	-924
oint	-925
▁lik	-926
ative	-927
▁run	-928
ommend	-929
▁let	-930
aster	-931
▁abs	-932
ret	-933
arr	-934
▁woman	-935
als	-936
▁episod	-937
ms	-938
ling	-939
▁poor	-940
▁happen	-941
▁anyone	-942
ane	-943
▁cr	-944
co	-945
▁believe	-946
▁add	-947
wood	-948
▁chan	-949
▁bor	-950
▁rather	-951
▁So	-952
▁Be	-953
▁ins	-954
▁keep	-955
▁making	-956
▁mean	-957
ten	-958
apt	-959
▁beautif	-960
▁mat	-961
▁vers	-962
▁Se	-963
ither	-964
osed	-965
▁trying	-966
ition	-967
▁different	-968
▁course	-969
▁John	-970
▁De	-971
▁each	-972
▁recommend	-973
▁job	-974
▁ending	-975
."	-976
▁surpris	-977
▁mind	-978
▁watched	-979
umb	-980
▁our	-981
fin	-982
olly	-983
▁del	-984
istic	-985
dd	-986
ingly	-987
▁ty	-988
▁That	-989
▁shows	-990
▁played	-991
iece	-992
ont	-993
▁Not	-994
▁fan	-995
▁help	-996
ject	-997
▁cre	-998
▁goes	-999
▁short	-1000
hip	-1001
ollow	-1002
▁sense	-1003
▁comes	-1004
▁We	-1005
sc	-1006
▁boy	-1007
ney	-1008
....	-1009
ments	-1010
▁perfect	-1011
ilar	-1012
▁wasn	-1013
It	-1014
▁money	-1015
uck	-1016
▁place	-1017
▁rest	-1018
▁day	-1019
▁gra	-1020
ics	-1021
rist	-1022
▁less	-1023
▁effects	-1024
▁stand	-1025
▁actor	-1026
llent	-1027
▁inter	-1028
ality	-1029
icha	-1030
leas	-1031
empt	-1032
read	-1033
▁super	-1034
▁half	-1035
▁proble	-1036
▁looking	-1037
arent	-1038
way	-1039
▁yet	-1040
▁port	-1041
▁plays	-1042
▁fav	-1043
▁mem	-1044
▁pol	-1045
▁looks	-1046
▁Re	-1047
▁gl	-1048
▁sit	-1049
ortun	-1050
▁ac	-1051
▁creat	-1052
▁pres	-1053
lud	-1054
▁understand	-1055
gether	-1056
▁together	-1057
ream	-1058
▁low	-1059
▁certain	-1060
▁review	-1061
▁miss	-1062
▁Cha	-1063
▁TH	-1064
▁else	-1065
▁follow	-1066
▁conf	-1067
▁For	-1068
▁Le	-1069
ates	-1070
upid	-1071
10	-1072
▁someone	-1073
udget	-1074
ident	-1075
▁head	-1076
ism	-1077
▁said	-1078
▁nice	-1079
▁having	-1080
▁All	-1081
cing	-1082
io	-1083
▁dep	-1084
▁special	-1085
arn	-1086
▁Bl	-1087
▁Sc	-1088
▁second	-1089
▁true	-1090
▁audience	-1091
ues	-1092
▁friends	-1093
ied	-1094
▁When	-1095
▁ed	-1096
day	-1097
▁especially	-1098
▁takes	-1099
▁excellent	-1100
ted	-1101
not	-1102
▁night	-1103
land	-1104
▁mon	-1105
▁imag	-1106
ah	-1107
0'	-1108
▁version	-1109
▁idea	-1110
▁poss	-1111
ix	-1112
uff	-1113
ex	-1114
▁Th	-1115
▁came	-1116
hool	-1117
▁exc	-1118
▁seeing	-1119
▁left	-1120
▁beautiful	-1121
▁three	-1122
▁hour	-1123
▁talk	-1124
▁fall	-1125
ollywood	-1126
▁American	-1127
▁everything	-1128
appoint	-1129
▁stupid	-1130
cept	-1131
▁invol	-1132
ired	-1133
▁obvious	-1134
ames	-1135
ited	-1136
ists	-1137
▁tot	-1138
ply	-1139
▁str	-1140
▁himself	-1141
old	-1142
ery	-1143
ross	-1144
▁ey	-1145
atic	-1146
▁vis	-1147
▁use	-1148
ional	-1149
▁remem	-1150
reak	-1151
▁entire	-1152
▁wife	-1153
▁disappoint	-1154
▁everyone	-1155
▁sk	-1156
hile	-1157
▁cho	-1158
ins	-1159
▁tal	-1160
▁det	-1161
▁My	-1162
olute	-1163
ird	-1164
ier	-1165
▁sing	-1166
▁lack	-1167
▁feat	-1168
▁Sp	-1169
▁comm	-1170
▁Rob	-1171
sy	-1172
my	-1173
▁during	-1174
▁dist	-1175
▁year	-1176
▁mur	-1177
att	-1178
▁completely	-1179
ides	-1180
▁Un	-1181
atch	-1182
▁home	-1183
▁once	-1184
ared	-1185
fully	-1186
▁4	-1187
▁used	-1188
▁exper	-1189
ower	-1190
▁production	-1191
▁later	-1192
▁attempt	-1193
▁portray	-1194
like	-1195
omb	-1196
▁fight	-1197
ount	-1198
▁cop	-1199
▁mar	-1200
med	-1201
ien	-1202
▁defin	-1203
▁cra	-1204
▁serious	-1205
▁ele	-1206
▁men	-1207
▁ph	-1208
but	-1209
ove	-1210
▁unt	-1211
▁sty	-1212
ool	-1213
air	-1214
ideo	-1215
ography	-1216
▁hist	-1217
▁boring	-1218
▁One	-1219
▁stud	-1220
▁ass	-1221
▁Cl	-1222
▁father	-1223
iol	-1224
▁top	-1225
▁death	-1226
lease	-1227
▁simply	-1228
▁Ste	-1229
orn	-1230
▁anim	-1231
▁song	-1232
▁wrong	-1233
▁word	-1234
ote	-1235
▁At	-1236
▁absolute	-1237
▁performances	-1238
▁tit	-1239
▁loc	-1240
iter	-1241
▁kids	-1242
▁mess	-1243
/10	-1244
▁Hollywood	-1245
▁open	-1246
ork	-1247
▁pict	-1248
▁gener	-1249
ying	-1250
▁exp	-1251
ger	-1252
▁along	-1253
ott	-1254
▁human	-1255
▁heart	-1256
▁line	-1257
▁Ar	-1258
itten	-1259
▁school	-1260
▁8	-1261
▁supposed	-1262
ider	-1263
ets	-1264
itely	-1265
▁includ	-1266
▁classic	-1267
▁either	-1268
▁flick	-1269
▁star	-1270
▁ret	-1271
▁sy	-1272
vin	-1273
▁budget	-1274
▁rep	-1275
▁5	-1276
▁humor	-1277
▁favor	-1278
▁camera	-1279
▁small	-1280
▁couple	-1281
▁fail	-1282
▁hope	-1283
fic	-1284
▁However	-1285
▁--	-1286
▁emot	-1287
ains	-1288
elt	-1289
▁count	-1290
cy	-1291
▁No	-1292
▁eas	-1293
idd	-1294
▁Mar	-1295
▁black	-1296
▁Man	-1297
▁women	-1298
vis	-1299
▁awful	-1300
▁amaz	-1301
iant	-1302
▁Christ	-1303
▁sad	-1304
▁rom	-1305
ters	-1306
▁truly	-1307
haps	-1308
▁won	-1309
▁wa	-1310
tern	-1311
▁exam	-1312
▁pass	-1313
com	-1314
▁moments	-1315
▁light	-1316
▁given	-1317
▁hat	-1318
▁until	-1319
▁ind	-1320
▁remember	-1321
▁sort	-1322
▁conc	-1323
▁getting	-1324
oon	-1325
▁terrible	-1326
▁full	-1327
▁particul	-1328
velop	-1329
▁Car	-1330
fortun	-1331
▁cred	-1332
▁viol	-1333
ize	-1334
▁itself	-1335
IN	-1336
▁name	-1337
▁house	-1338
▁instead	-1339
aring	-1340
▁Well	-1341
▁becom	-1342
▁episode	-1343
ities	-1344
play	-1345
sel	-1346
▁guess	-1347
▁wonderful	-1348
▁except	-1349
▁pain	-1350
▁hero	-1351
ike	-1352
▁video	-1353
na	-1354
orm	-1355
▁talent	-1356
uth	-1357
▁7	-1358
iness	-1359
▁lines	-1360
que	-1361
▁dialogue	-1362
▁doing	-1363
ric	-1364
▁liked	-1365
▁piece	-1366
▁couldn	-1367
▁playing	-1368
ton	-1369
▁next	-1370
▁Don	-1371
▁slow	-1372
▁On	-1373
▁Mr	-1374
▁.	-1375
rom	-1376
▁went	-1377
mak	-1378
illy	-1379
ories	-1380
ently	-1381
ax	-1382
▁9	-1383
▁coll	-1384
▁gives	-1385
reme	-1386
ming	-1387
ug	-1388
ument	-1389
imes	-1390
▁rent	-1391
▁entertaining	-1392
▁mother	-1393
riend	-1394
itch	-1395
aj	-1396
▁reg	-1397
▁others	-1398
line	-1399
ility	-1400
▁brill	-1401
▁Fran	-1402
▁stars	-1403
▁however	-1404
cess	-1405
▁dri	-1406
▁impress	-1407
▁face	-1408
▁often	-1409
▁ann	-1410
mp	-1411
▁waste	-1412
oot	-1413
▁early	-1414
▁maybe	-1415
▁THE	-1416
▁absolutely	-1417
▁cor	-1418
ibly	-1419
▁Jack	-1420
▁develop	-1421
▁live	-1422
▁felt	-1423
▁cut	-1424
oid	-1425
▁worse	-1426
ured	-1427
▁dead	-1428
▁Will	-1429
ony	-1430
▁definitely	-1431
▁children	-1432
ley	-1433
▁case	-1434
,"	-1435
tic	-1436
amp	-1437
▁tran	-1438
▁loved	-1439
vent	-1440
▁power	-1441
ler	-1442
▁actress	-1443
▁close	-1444
ized	-1445
▁style	-1446
▁rid	-1447
round	-1448
yn	-1449
▁mention	-1450
▁title	-1451
body	-1452
▁pat	-1453
right	-1454
▁mis	-1455
▁beginning	-1456
▁strong	-1457
▁become	-1458
▁relations	-1459
▁guys	-1460
▁dark	-1461
▁z	-1462
▁quest	-1463
used	-1464
▁seemed	-1465
ts	-1466
▁written	-1467
▁ref	-1468
▁fant	-1469
uss	-1470
▁Dav	-1471
▁Some	-1472
▁certainly	-1473
oub	-1474
▁problem	-1475
▁Even	-1476
▁After	-1477
und	-1478
ined	-1479
lish	-1480
▁side	-1481
In	-1482
▁pred	-1483
▁sever	-1484
▁brilliant	-1485
▁vo	-1486
enn	-1487
hol	-1488
▁extreme	-1489
ccess	-1490
vable	-1491
▁drama	-1492
unk	-1493
▁thrill	-1494
▁several	-1495
▁picture	-1496
unch	-1497
▁totally	-1498
▁form	-1499
ular	-1500
▁cinema	-1501
▁wanted	-1502
▁direction	-1503
pped	-1504
ank	-1505
▁New	-1506
pite	-1507
by	-1508
cha	-1509
▁To	-1510
▁et	-1511
ready	-1512
ichael	-1513
fortunately	-1514
rew	-1515
▁past	-1516
selves	-1517
▁somew	-1518
??	-1519
▁master	-1520
▁relationship	-1521
▁sw	-1522
▁adm	-1523
▁fans	-1524
!<	-1525
ung	-1526
ific	-1527
▁quality	-1528
▁pop	-1529
▁example	-1530
▁Eng	-1531
ided	-1532
▁lives	-1533
▁against	-1534
▁already	-1535
▁fine	-1536
gu	-1537
▁av	-1538
▁called	-1539
▁His	-1540
iam	-1541
▁Har	-1542
aughter	-1543
▁game	-1544
▁deser	-1545
ump	-1546
▁Is	-1547
▁blood	-1548
▁although	-1549
▁enjoyed	-1550
▁success	-1551
▁stuff	-1552
▁char	-1553
▁comment	-1554
▁able	-1555
▁tou	-1556
▁support	-1557
▁writing	-1558
▁doc	-1559
▁Mc	-1560
rop	-1561
▁nat	-1562
ried	-1563
▁deal	-1564
▁based	-1565
▁par	-1566
▁becomes	-1567
▁town	-1568
▁gave	-1569
▁grou	-1570
▁annoy	-1571
▁stran	-1572
▁brother	-1573
▁dem	-1574
▁list	-1575
▁capt	-1576
▁pur	-1577
).<	-1578
▁eff	-1579
▁self	-1580
▁wants	-1581
ief	-1582
oil	-1583
rown	-1584
▁prov	-1585
OT	-1586
▁horrible	-1587
▁cent	-1588
▁sat	-1589
▁val	-1590
orge	-1591
▁works	-1592
▁bra	-1593
ovie	-1594
using	-1595
▁amazing	-1596
use	-1597
▁walk	-1598
▁Sha	-1599
ister	-1600
▁,	-1601
▁lost	-1602
▁parts	-1603
▁favorite	-1604
ches	-1605
▁etc	-1606
▁throughout	-1607
ots	-1608
▁tries	-1609
▁susp	-1610
▁situ	-1611
ages	-1612
▁mag	-1613
▁hilar	-1614
▁viewer	-1615
rib	-1616
▁sn	-1617
▁mor	-1618
tra	-1619
▁vill	-1620
▁today	-1621
▁history	-1622
▁matter	-1623
to	-1624
oke	-1625
▁days	-1626
▁fair	-1627
▁son	-1628
▁teen	-1629
ination	-1630
▁With	-1631
▁med	-1632
▁fem	-1633
▁hon	-1634
hind	-1635
▁crit	-1636
▁myself	-1637
chn	-1638
ude	-1639
▁occ	-1640
▁present	-1641
▁trans	-1642
ene	-1643
▁import	-1644
▁genre	-1645
ox	-1646
okes	-1647
itive	-1648
▁stra	-1649
▁document	-1650
▁psy	-1651
leased	-1652
▁Michael	-1653
▁num	-1654
▁learn	-1655
▁cult	-1656
▁final	-1657
If	-1658
▁incred	-1659
ient	-1660
▁col	-1661
▁turns	-1662
astic	-1663
iculous	-1664
ern	-1665
▁Also	-1666
hich	-1667
▁late	-1668
ec	-1669
off	-1670
▁finally	-1671
▁Ed	-1672
▁cost	-1673
▁appear	-1674
▁thinking	-1675
ished	-1676
▁themselves	-1677
▁typ	-1678
▁myster	-1679
▁hilarious	-1680
ik	-1681
ape	-1682
▁level	-1683
▁Robert	-1684
▁Ge	-1685
els	-1686
dy	-1687
▁Just	-1688
▁decent	-1689
▁group	-1690
▁effort	-1691
▁Ger	-1692
ajor	-1693
▁pick	-1694
nded	-1695
There	-1696
▁break	-1697
▁killer	-1698
▁consider	-1699
▁foot	-1700
▁inf	-1701
▁prom	-1702
▁novel	-1703
▁heard	-1704
▁killed	-1705
rodu	-1706
▁stop	-1707
▁contin	-1708
▁starts	-1709
ron	-1710
▁exact	-1711
ey	-1712
band	-1713
▁ir	-1714
▁Brit	-1715
▁Then	-1716
▁type	-1717
▁cinemat	-1718
▁took	-1719
▁Of	-1720
▁deli	-1721
uc	-1722
▁eyes	-1723
▁behind	-1724
cks	-1725
▁Dan	-1726
▁fig	-1727
▁feeling	-1728
▁happens	-1729
▁ask	-1730
mb	-1731
arb	-1732
▁girls	-1733
▁lea	-1734
▁Why	-1735
uge	-1736
▁experience	-1737
▁tele	-1738
▁moment	-1739
▁predict	-1740
▁intell	-1741
▁May	-1742
▁ridiculous	-1743
19	-1744
ese	-1745
▁Every	-1746
▁voice	-1747
▁opp	-1748
▁daughter	-1749
▁opin	-1750
usband	-1751
AT	-1752
▁mot	-1753
ior	-1754
▁evil	-1755
AN	-1756
▁involved	-1757
▁sle	-1758
▁roles	-1759
▁Her	-1760
▁non	-1761
ural	-1762
▁bus	-1763
▁looked	-1764
ST	-1765
▁soon	-1766
▁crap	-1767
ky	-1768
ards	-1769
▁While	-1770
yp	-1771
urt	-1772
▁directed	-1773
▁Char	-1774
antly	-1775
▁says	-1776
▁ago	-1777
▁murder	-1778
ences	-1779
ives	-1780
zy	-1781
gs	-1782
▁prof	-1783
▁cool	-1784
antic	-1785
▁told	-1786
▁fore	-1787
▁speak	-1788
▁chang	-1789
ats	-1790
▁extremely	-1791
▁hit	-1792
▁major	-1793
▁wouldn	-1794
▁const	-1795
!!!	-1796
▁ste	-1797
.)	-1798
▁stories	-1799
▁perhaps	-1800
▁chance	-1801
▁cannot	-1802
▁6	-1803
▁stru	-1804
▁white	-1805
▁cheap	-1806
▁husband	-1807
▁happened	-1808
▁War	-1809
LL	-1810
che	-1811
▁weak	-1812
▁sol	-1813
▁score	-1814
▁Ind	-1815
▁hold	-1816
▁Now	-1817
▁Pl	-1818
aul	-1819
aug	-1820
▁coming	-1821
rench	-1822
ians	-1823
vision	-1824
arth	-1825
▁simple	-1826
ering	-1827
eg	-1828
▁uni	-1829
ones	-1830
▁move	-1831
▁violence	-1832
▁God	-1833
side	-1834
urb	-1835
▁Ke	-1836
▁win	-1837
▁shoot	-1838
▁room	-1839
▁shown	-1840
▁bring	-1841
▁dream	-1842
ator	-1843
▁result	-1844
▁highly	-1845
iddle	-1846
▁swe	-1847
ement	-1848
▁disco	-1849
key	-1850
▁desc	-1851
▁yourself	-1852
▁jokes	-1853
...<	-1854
▁age	-1855
▁musical	-1856
▁quick	-1857
▁esc	-1858
vol	-1859
OR	-1860
▁comed	-1861
ek	-1862
▁leave	-1863
ON	-1864
cer	-1865
ational	-1866
▁stay	-1867
aged	-1868
iet	-1869
▁dr	-1870
▁stre	-1871
▁annoying	-1872
▁country	-1873
▁subject	-1874
▁released	-1875
▁known	-1876
▁English	-1877
▁David	-1878
▁opinion	-1879
▁suspense	-1880
▁career	-1881
pping	-1882
▁obviously	-1883
matic	-1884
▁cinematography	-1885
▁disappointed	-1886
▁huge	-1887
▁hours	-1888
▁taken	-1889
▁shock	-1890
nds	-1891
▁Pet	-1892
ows	-1893
of	-1894
▁pos	-1895
▁phot	-1896
▁prem	-1897
▁techn	-1898
▁200	-1899
gra	-1900
ution	-1901
ral	-1902
enty	-1903
▁ang	-1904
ground	-1905
AR	-1906
▁wish	-1907
ph	-1908
ield	-1909
But	-1910
▁event	-1911
ered	-1912
ctor	-1913
▁colle	-1914
▁Do	-1915
rest	-1916
And	-1917
▁across	-1918
▁inde	-1919
▁sometimes	-1920
▁similar	-1921
bel	-1922
▁fut	-1923
itting	-1924
amed	-1925
▁started	-1926
real	-1927
▁saying	-1928
▁doub	-1929
wards	-1930
iety	-1931
hetic	-1932
▁gore	-1933
▁documentary	-1934
ball	-1935
any	-1936
▁strange	-1937
▁writer	-1938
▁four	-1939
▁Br	-1940
ury	-1941
▁Con	-1942
ina	-1943
▁pay	-1944
▁var	-1945
▁usual	-1946
▁deep	-1947
▁James	-1948
▁particularly	-1949
▁met	-1950
▁plan	-1951
mos	-1952
▁apparent	-1953
▁polit	-1954
▁ones	-1955
▁return	-1956
▁exactly	-1957
▁Pe	-1958
iction	-1959
gan	-1960
lling	-1961
▁rating	-1962
▁shots	-1963
ubl	-1964
reci	-1965
▁foc	-1966
▁possible	-1967
oul	-1968
▁dev	-1969
▁save	-1970
▁honest	-1971
▁ends	-1972
▁Tom	-1973
eng	-1974
▁disc	-1975
▁parent	-1976
▁attention	-1977
▁laug	-1978
▁forget	-1979
outh	-1980
▁subt	-1981
estern	-1982
▁hot	-1983
▁knew	-1984
▁treat	-1985
▁opening	-1986
****	-1987
▁order	-1988
ouble	-1989
▁female	-1990
▁pull	-1991
▁reality	-1992
ING	-1993
▁lar	-1994
sh	-1995
▁body	-1996
▁ca	-1997
▁silly	-1998
ichard	-1999
yond	-2000
rence	-2001
▁turned	-2002
▁fill	-2003
▁change	-2004
oud	-2005
wise	-2006
ential	-2007
▁Per	-2008
▁near	-2009
▁detail	-2010
mm	-2011
▁moder	-2012
▁somewhat	-2013
▁build	-2014
ald	-2015
ili	-2016
▁gun	-2017
▁local	-2018
▁German	-2019
▁ill	-2020
▁number	-2021
ppy	-2022
▁unc	-2023
▁important	-2024
▁episodes	-2025
▁20	-2026
ino	-2027
ean	-2028
aced	-2029
▁team	-2030
▁remind	-2031
▁alone	-2032
▁dru	-2033
track	-2034
▁OK	-2035
▁pot	-2036
▁running	-2037
mosp	-2038
▁dest	-2039
▁living	-2040
▁pri	-2041
▁cart	-2042
▁usually	-2043
▁ten	-2044
▁single	-2045
▁sent	-2046
▁words	-2047
lt	-2048
aim	-2049
unt	-2050
▁police	-2051
▁filmmak	-2052
▁Any	-2053
▁Or	-2054
aris	-2055
▁hell	-2056
▁predictable	-2057
▁air	-2058
▁Osc	-2059
▁straight	-2060
▁enjoyable	-2061
apan	-2062
▁Ad	-2063
▁touch	-2064
▁whose	-2065
▁lad	-2066
▁problems	-2067
▁television	-2068
▁Gra	-2069
▁mist	-2070
▁compl	-2071
▁atmosp	-2072
inc	-2073
▁(19	-2074
▁finds	-2075
!"	-2076
▁appreci	-2077
ys	-2078
which	-2079
ires	-2080
▁knows	-2081
▁dull	-2082
▁middle	-2083
▁gang	-2084
aid	-2085
▁taking	-2086
▁talking	-2087
head	-2088
▁convin	-2089
▁ant	-2090
▁respect	-2091
otic	-2092
▁among	-2093
orry	-2094
▁clich	-2095
ubb	-2096
▁inn	-2097
orable	-2098
EN	-2099
▁British	-2100
▁ut	-2101
▁soundtrack	-2102
▁unf	-2103
▁aren	-2104
▁hate	-2105
gy	-2106
▁William	-2107
▁vict	-2108
▁despite	-2109
ush	-2110
▁scary	-2111
▁songs	-2112
▁intellig	-2113
usion	-2114
▁events	-2115
▁due	-2116
▁season	-2117
olog	-2118
▁modern	-2119
▁Com	-2120
iest	-2121
▁hop	-2122
▁land	-2123
▁box	-2124
▁El	-2125
arch	-2126
▁forg	-2127
▁hands	-2128
ital	-2129
▁check	-2130
▁surprised	-2131
light	-2132
▁seriously	-2133
▁Am	-2134
▁meet	-2135
!!!!	-2136
▁equ	-2137
▁including	-2138
▁eng	-2139
▁haven	-2140
rison	-2141
▁sold	-2142
▁mater	-2143
▁previous	-2144
rely	-2145
back	-2146
▁mark	-2147
▁mostly	-2148
▁happy	-2149
▁contro	-2150
▁tells	-2151
▁sequel	-2152
who	-2153
ura	-2154
rated	-2155
▁romantic	-2156
▁adult	-2157
▁pleas	-2158
▁explain	-2159
▁storyline	-2160
▁IM	-2161
▁Bra	-2162
▁Japan	-2163
lo	-2164
▁ve	-2165
form	-2166
▁camp	-2167
aught	-2168
▁Can	-2169
▁prot	-2170
▁none	-2171
▁Wor	-2172
▁sets	-2173
▁Ne	-2174
▁beyond	-2175
iod	-2176
As	-2177
ised	-2178
▁dan	-2179
▁material	-2180
▁Richard	-2181
▁doubt	-2182
▁sequence	-2183
▁narr	-2184
verage	-2185
▁comic	-2186
irector	-2187
▁aspect	-2188
▁future	-2189
▁above	-2190
▁creep	-2191
action	-2192
ira	-2193
▁fast	-2194
▁sign	-2195
▁bro	-2196
ening	-2197
▁entertainment	-2198
where	-2199
ned	-2200
▁adv	-2201
▁tried	-2202
ants	-2203
▁odd	-2204
▁ways	-2205
▁eye	-2206
▁Although	-2207
▁bunch	-2208
▁message	-2209
ously	-2210
▁flaw	-2211
▁theat	-2212
▁falls	-2213
▁comments	-2214
asc	-2215
What	-2216
▁twist	-2217
▁apart	-2218
uri	-2219
▁spir	-2220
▁moving	-2221
▁clear	-2222
▁question	-2223
▁needs	-2224
▁Sh	-2225
nding	-2226
work	-2227
▁First	-2228
▁Dis	-2229
▁giving	-2230
▁clearly	-2231
▁thriller	-2232
▁slight	-2233
▁kept	-2234
▁197	-2235
▁easily	-2236
▁198	-2237
EA	-2238
▁Sam	-2239
▁visual	-2240
▁sexual	-2241
▁feature	-2242
?<	-2243
▁NOT	-2244
▁ear	-2245
▁upon	-2246
mas	-2247
▁Ital	-2248
▁setting	-2249
▁supporting	-2250
ublic	-2251
▁Paul	-2252
▁Mor	-2253
ension	-2254
▁spoil	-2255
▁French	-2256
▁appears	-2257
▁Oh	-2258
▁showing	-2259
▁decided	-2260
▁release	-2261
▁theme	-2262
▁filmed	-2263
▁reviews	-2264
▁bar	-2265
▁George	-2266
▁viewing	-2267
eth	-2268
▁Who	-2269
ggest	-2270
▁emb	-2271
iment	-2272
▁superb	-2273
▁parents	-2274
inal	-2275
',	-2276
ee	-2277
asy	-2278
▁...	-2279
tt	-2280
kay	-2281
▁buy	-2282
cl	-2283
ival	-2284
attle	-2285
ressed	-2286
▁victim	-2287
▁suggest	-2288
▁believable	-2289
IL	-2290
bb	-2291
▁reve	-2292
▁zomb	-2293
go	-2294
▁personal	-2295
!)	-2296
ficult	-2297
▁comb	-2298
▁fell	-2299
▁accept	-2300
oun	-2301
▁period	-2302
▁easy	-2303
▁overall	-2304
ices	-2305
▁adapt	-2306
▁actual	-2307
▁editing	-2308
▁chees	-2309
▁Oscar	-2310
▁realistic	-2311
ltim	-2312
▁difficult	-2313
iel	-2314
▁sister	-2315
▁insp	-2316
verall	-2317
▁allow	-2318
irt	-2319
▁US	-2320
▁weird	-2321
▁secret	-2322
akes	-2323
ges	-2324
▁mil	-2325
▁viewers	-2326
▁Dr	-2327
▁Maybe	-2328
▁means	-2329
▁premise	-2330
▁typical	-2331
▁exist	-2332
▁free	-2333
▁elements	-2334
▁ru	-2335
▁working	-2336
▁points	-2337
▁post	-2338
▁Frank	-2339
▁named	-2340
▁*	-2341
▁throw	-2342
▁large	-2343
▁iss	-2344
▁hear	-2345
ara	-2346
ceed	-2347
▁Bro	-2348
▁surv	-2349
bo	-2350
esome	-2351
▁fantastic	-2352
▁attack	-2353
▁theater	-2354
kes	-2355
▁har	-2356
▁mix	-2357
▁leads	-2358
▁greatest	-2359
▁feels	-2360
▁truth	-2361
▁wit	-2362
OU	-2363
gic	-2364
uses	-2365
▁tre	-2366
orth	-2367
ances	-2368
oor	-2369
bs	-2370
▁dumb	-2371
▁attract	-2372
▁Mart	-2373
▁within	-2374
▁brought	-2375
▁sequences	-2376
Al	-2377
piece	-2378
▁famous	-2379
▁atmosphere	-2380
lin	-2381
▁suff	-2382
▁expected	-2383
aby	-2384
▁writ	-2385
▁grow	-2386
▁nearly	-2387
▁IMD	-2388
▁York	-2389
▁cat	-2390
▁tale	-2391
rific	-2392
ged	-2393
▁cur	-2394
▁background	-2395
▁die	-2396
ially	-2397
▁wait	-2398
▁using	-2399
▁animation	-2400
▁basically	-2401
St	-2402
ising	-2403
▁lame	-2404
▁stun	-2405
▁sil	-2406
cious	-2407
▁five	-2408
▁clim	-2409
▁bored	-2410
▁poorly	-2411
▁America	-2412
▁city	-2413
▁average	-2414
more	-2415
▁psyc	-2416
lfriend	-2417
▁meaning	-2418
aling	-2419
▁herself	-2420
▁Jul	-2421
▁norm	-2422
▁copy	-2423
king	-2424
▁lots	-2425
hic	-2426
ye	-2427
▁id	-2428
▁obs	-2429
▁introdu	-2430
▁business	-2431
▁pure	-2432
sw	-2433
▁figure	-2434
▁Most	-2435
▁Col	-2436
▁Jim	-2437
▁Yes	-2438
▁und	-2439
anger	-2440
▁tast	-2441
▁Gu	-2442
▁ran	-2443
▁surprise	-2444
▁199	-2445
▁particular	-2446
▁crime	-2447
time	-2448
▁front	-2449
ining	-2450
▁whether	-2451
▁Sim	-2452
▁soc	-2453
▁stere	-2454
upp	-2455
▁dog	-2456
▁Unfortunately	-2457
fer	-2458
ring	-2459
ES	-2460
▁sens	-2461
ula	-2462
▁situation	-2463
▁wood	-2464
▁avoid	-2465
▁rock	-2466
▁clever	-2467
irc	-2468
▁Aust	-2469
▁stri	-2470
omin	-2471
▁Peter	-2472
▁Ex	-2473
▁Tra	-2474
▁From	-2475
▁became	-2476
uro	-2477
icks	-2478
▁Film	-2479
ager	-2480
▁begins	-2481
lier	-2482
▁write	-2483
▁cheesy	-2484
▁killing	-2485
ole	-2486
'.	-2487
ogn	-2488
▁shame	-2489
▁rese	-2490
▁laughs	-2491
▁enc	-2492
▁utter	-2493
pend	-2494
▁interested	-2495
▁Its	-2496
▁male	-2497
?"	-2498
rid	-2499
bers	-2500
hood	-2501
▁lim	-2502
▁monster	-2503
bert	-2504
▁resp	-2505
▁strugg	-2506
▁needed	-2507
nel	-2508
▁sick	-2509
▁Mon	-2510
▁exec	-2511
bor	-2512
▁minute	-2513
▁Tw	-2514
▁King	-2515
▁crew	-2516
▁red	-2517
▁Like	-2518
atter	-2519
▁cover	-2520
▁footage	-2521
▁gone	-2522
▁anyway	-2523
My	-2524
cers	-2525
iences	-2526
▁forward	-2527
arre	-2528
▁forced	-2529
▁leaves	-2530
▁apparently	-2531
cted	-2532
ively	-2533
▁grand	-2534
▁stage	-2535
▁credits	-2536
friend	-2537
▁reading	-2538
▁features	-2539
host	-2540
▁keeps	-2541
dden	-2542
rey	-2543
▁costum	-2544
▁AN	-2545
▁Good	-2546
urther	-2547
▁unique	-2548
▁Sm	-2549
▁fra	-2550
▁memorable	-2551
▁girlfriend	-2552
omp	-2553
▁stereot	-2554
▁Disney	-2555
▁emotional	-2556
▁Ang	-2557
ills	-2558
▁wind	-2559
ius	-2560
lor	-2561
▁badly	-2562
▁imagine	-2563
hys	-2564
▁bel	-2565
▁somehow	-2566
▁agree	-2567
isf	-2568
▁appro	-2569
▁Lee	-2570
▁yes	-2571
▁public	-2572
▁romance	-2573
▁/>"	-2574
▁IMDb	-2575
▁mystery	-2576
spect	-2577
▁disturb	-2578
▁realize	-2579
lly	-2580
▁gay	-2581
▁mill	-2582
▁ultim	-2583
▁society	-2584
▁mad	-2585
eless	-2586
▁acted	-2587
▁unlike	-2588
▁masterpiece	-2589
▁advent	-2590
▁emotion	-2591
▁villain	-2592
angu	-2593
So	-2594
▁cry	-2595
▁express	-2596
ored	-2597
▁heav	-2598
▁meets	-2599
▁los	-2600
iliar	-2601
▁admit	-2602
▁sudden	-2603
▁perfectly	-2604
oof	-2605
▁Ben	-2606
▁Wood	-2607
▁joke	-2608
ett	-2609
▁band	-2610
▁meant	-2611
unny	-2612
▁incredibly	-2613
pper	-2614
reed	-2615
▁please	-2616
▁concept	-2617
▁worked	-2618
▁fire	-2619
agon	-2620
▁dam	-2621
▁oper	-2622
▁prop	-2623
urd	-2624
ries	-2625
▁design	-2626
belie	-2627
▁possibly	-2628
aces	-2629
itty	-2630
▁liter	-2631
RE	-2632
▁quickly	-2633
▁cartoon	-2634
▁total	-2635
▁wasted	-2636
ived	-2637
▁extra	-2638
▁amount	-2639
ding	-2640
▁profess	-2641
aking	-2642
▁:	-2643
▁repe	-2644
▁creepy	-2645
iny	-2646
arry	-2647
▁fasc	-2648
▁ment	-2649
olf	-2650
cked	-2651
▁deserves	-2652
▁dance	-2653
▁writers	-2654
erv	-2655
▁space	-2656
▁directing	-2657
OO	-2658
▁prison	-2659
▁sleep	-2660
▁spent	-2661
▁third	-2662
▁er	-2663
▁cap	-2664
▁conne	-2665
▁!	-2666
arring	-2667
▁Scott	-2668
▁fails	-2669
▁expecting	-2670
You	-2671
▁catch	-2672
▁general	-2673
▁screenplay	-2674
over	-2675
▁older	-2676
▁reasons	-2677
chie	-2678
cher	-2679
well	-2680
▁nature	-2681
▁earlier	-2682
?)	-2683
rif	-2684
▁rich	-2685
▁portrayed	-2686
stead	-2687
▁Chan	-2688
▁These	-2689
▁development	-2690
▁Ph	-2691
kn	-2692
aked	-2693
▁bare	-2694
▁Gr	-2695
look	-2696
oman	-2697
▁popular	-2698
▁By	-2699
▁Japanese	-2700
▁powerful	-2701
▁fairly	-2702
ze	-2703
▁Che	-2704
▁sorry	-2705
▁recogn	-2706
▁purp	-2707
▁nor	-2708
▁vamp	-2709
▁plain	-2710
ford	-2711
▁flat	-2712
▁plenty	-2713
▁project	-2714
▁innoc	-2715
▁histor	-2716
▁brings	-2717
with	-2718
let	-2719
cessary	-2720
udity	-2721
▁invest	-2722
▁195	-2723
▁laughing	-2724
▁Black	-2725
▁Great	-2726
por	-2727
▁Af	-2728
gest	-2729
▁Me	-2730
par	-2731
▁symp	-2732
▁leading	-2733
▁loo	-2734
▁conv	-2735
▁Night	-2736
▁sounds	-2737
mist	-2738
▁Pr	-2739
▁various	-2740
All	-2741
erry	-2742
▁occas	-2743
ham	-2744
▁whom	-2745
▁talented	-2746
")	-2747
▁beauty	-2748
▁directors	-2749
▁Lu	-2750
ises	-2751
▁towards	-2752
ague	-2753
▁langu	-2754
An	-2755
▁caught	-2756
▁Russ	-2757
▁inside	-2758
▁imm	-2759
andy	-2760
▁Des	-2761
▁Pat	-2762
itted	-2763
arrass	-2764
▁scient	-2765
▁Italian	-2766
▁circ	-2767
▁Ha	-2768
▁hom	-2769
▁30	-2770
vered	-2771
▁jour	-2772
▁Watch	-2773
▁manages	-2774
▁dramatic	-2775
▁aut	-2776
▁boys	-2777
▁eventually	-2778
▁ended	-2779
▁attempts	-2780
ips	-2781
▁positive	-2782
▁spirit	-2783
▁missing	-2784
▁Su	-2785
▁Euro	-2786
▁recently	-2787
▁potential	-2788
▁beha	-2789
▁members	-2790
rel	-2791
inary	-2792
roy	-2793
holog	-2794
▁funn	-2795
▁create	-2796
writ	-2797
▁cute	-2798
▁intri	-2799
urs	-2800
▁pace	-2801
▁embarrass	-2802
boy	-2803
▁fighting	-2804
men	-2805
ging	-2806
▁law	-2807
▁stat	-2808
▁ideas	-2809
zz	-2810
irl	-2811
acher	-2812
ero	-2813
▁bother	-2814
▁familiar	-2815
ained	-2816
▁note	-2817
▁sweet	-2818
▁battle	-2819
bl	-2820
▁Bill	-2821
▁Other	-2822
▁water	-2823
een	-2824
▁record	-2825
▁remake	-2826
cause	-2827
ivid	-2828
▁nudity	-2829
ope	-2830
▁brain	-2831
ask	-2832
▁ign	-2833
onic	-2834
▁neg	-2835
▁Van	-2836
▁aff	-2837
▁cond	-2838
▁porn	-2839
▁indeed	-2840
▁idi	-2841
▁trad	-2842
▁western	-2843
▁ident	-2844
▁travel	-2845
▁accident	-2846
even	-2847
▁jud	-2848
val	-2849
▁Ale	-2850
izing	-2851
▁commun	-2852
▁delight	-2853
▁Mac	-2854
▁Pro	-2855
▁revol	-2856
▁ble	-2857
min	-2858
▁crazy	-2859
▁appreciate	-2860
▁missed	-2861
▁era	-2862
▁store	-2863
▁doctor	-2864
▁bed	-2865
iously	-2866
▁hair	-2867
▁Em	-2868
cent	-2869
▁phys	-2870
▁waiting	-2871
sters	-2872
▁Here	-2873
▁lady	-2874
▁depth	-2875
▁trail	-2876
▁political	-2877
IS	-2878
fi	-2879
▁15	-2880
▁Mad	-2881
▁telling	-2882
▁stereotyp	-2883
iced	-2884
▁casting	-2885
▁af	-2886
ites	-2887
▁medi	-2888
▁unbelie	-2889
hel	-2890
▁hy	-2891
▁biz	-2892
▁forgot	-2893
acing	-2894
▁("	-2895
▁requ	-2896
▁common	-2897
su	-2898
▁hardly	-2899
medi	-2900
uter	-2901
▁Hor	-2902
▁social	-2903
lu	-2904
▁ess	-2905
asher	-2906
▁value	-2907
▁created	-2908
bit	-2909
vil	-2910
▁flash	-2911
▁World	-2912
▁pointless	-2913
▁Joe	-2914
▁slightly	-2915
▁portrayal	-2916
▁murd	-2917
cast	-2918
▁rate	-2919
▁following	-2920
udd	-2921
▁achie	-2922
▁convincing	-2923
emy	-2924
ieces	-2925
▁offic	-2926
cle	-2927
this	-2928
▁garb	-2929
▁filmmakers	-2930
▁mel	-2931
▁impro	-2932
▁Let	-2933
ele	-2934
▁married	-2935
uine	-2936
▁credit	-2937
▁est	-2938
▁explo	-2939
▁wrote	-2940
itation	-2941
▁former	-2942
▁Instead	-2943
iers	-2944
▁sum	-2945
▁outside	-2946
set	-2947
ishing	-2948
ossible	-2949
▁Park	-2950
▁draw	-2951
▁whatever	-2952
▁193	-2953
▁mod	-2954
▁answ	-2955
▁laugha	-2956
VER	-2957
▁mid	-2958
▁escape	-2959
▁complex	-2960
af	-2961
rage	-2962
iller	-2963
ashing	-2964
▁subtle	-2965
ashion	-2966
PO	-2967
▁Act	-2968
▁tort	-2969
▁follows	-2970
▁incredible	-2971
while	-2972
▁accent	-2973
▁desper	-2974
▁mentioned	-2975
▁fit	-2976
▁claim	-2977
▁relig	-2978
▁Europe	-2979
uted	-2980
▁Tim	-2981
imp	-2982
▁week	-2983
▁situations	-2984
▁amusing	-2985
ED	-2986
▁died	-2987
How	-2988
berg	-2989
▁rob	-2990
▁anti	-2991
▁tension	-2992
▁step	-2993
▁color	-2994
sen	-2995
ased	-2996
come	-2997
▁solid	-2998
standing	-2999
▁choice	-3000
▁immedi	-3001
▁decides	-3002
venge	-3003
ective	-3004
▁scream	-3005
▁intelligent	-3006
no	-3007
lict	-3008
▁Sw	-3009
▁Ser	-3010
▁glad	-3011
▁exciting	-3012
000	-3013
▁brief	-3014
▁further	-3015
▁rece	-3016
ki	-3017
▁produced	-3018
resh	-3019
ribly	-3020
▁doll	-3021
▁moves	-3022
ibility	-3023
▁genuine	-3024
▁fol	-3025
iving	-3026
▁uses	-3027
lusion	-3028
▁stick	-3029
▁control	-3030
▁En	-3031
▁remark	-3032
▁fantasy	-3033
oe	-3034
▁humour	-3035
▁garbage	-3036
▁clos	-3037
▁Movie	-3038
▁younger	-3039
▁pathetic	-3040
con	-3041
▁rad	-3042
▁college	-3043
ann	-3044
▁entirely	-3045
▁spend	-3046
▁language	-3047
▁decide	-3048
One	-3049
▁196	-3050
movie	-3051
inger	-3052
▁biggest	-3053
▁Christmas	-3054
▁match	-3055
▁Cra	-3056
▁Star	-3057
▁arri	-3058
iff	-3059
▁mass	-3060
▁luck	-3061
▁awesome	-3062
▁satisf	-3063
▁trouble	-3064
▁unfortunately	-3065
▁inte	-3066
▁unless	-3067
OW	-3068
▁sci	-3069
▁sees	-3070
mistry	-3071
▁critic	-3072
▁depict	-3073
▁soul	-3074
OM	-3075
▁showed	-3076
vern	-3077
▁bought	-3078
▁values	-3079
idden	-3080
ened	-3081
▁fake	-3082
▁terror	-3083
▁ine	-3084
▁wall	-3085
▁recent	-3086
arl	-3087
elly	-3088
rect	-3089
▁Dra	-3090
▁likes	-3091
alth	-3092
uster	-3093
▁trash	-3094
▁progra	-3095
▁producers	-3096
BC	-3097
▁Boy	-3098
▁train	-3099
▁company	-3100
▁earth	-3101
▁mer	-3102
▁compe	-3103
irty	-3104
▁successful	-3105
sequ	-3106
lying	-3107
▁wild	-3108
▁track	-3109
▁cru	-3110
aging	-3111
▁Love	-3112
▁mood	-3113
▁unin	-3114
▁avail	-3115
ille	-3116
▁compet	-3117
▁ground	-3118
aper	-3119
▁amate	-3120
▁weren	-3121
▁fascin	-3122
ilt	-3123
▁taste	-3124
▁images	-3125
▁bizarre	-3126
▁chemistry	-3127
▁party	-3128
▁longer	-3129
▁otherwise	-3130
known	-3131
ette	-3132
▁brut	-3133
▁jump	-3134
▁rede	-3135
Don	-3136
▁filled	-3137
▁dancing	-3138
▁purpose	-3139
▁Gold	-3140
▁drug	-3141
▁danger	-3142
wart	-3143
idered	-3144
▁breat	-3145
ottom	-3146
▁refe	-3147
▁kills	-3148
▁changed	-3149
IT	-3150
▁Lou	-3151
▁continu	-3152
▁violent	-3153
▁rap	-3154
▁regard	-3155
▁compared	-3156
▁Je	-3157
▁questions	-3158
▁impressive	-3159
iche	-3160
▁exception	-3161
alt	-3162
▁Jane	-3163
▁failed	-3164
▁Big	-3165
▁Dead	-3166
▁cross	-3167
▁ghost	-3168
▁slasher	-3169
▁suc	-3170
▁beat	-3171
▁disturbing	-3172
gend	-3173
▁concern	-3174
▁spot	-3175
▁Lau	-3176
ified	-3177
▁effective	-3178
▁90	-3179
▁80'	-3180
chable	-3181
▁suspect	-3182
ization	-3183
▁Rock	-3184
On	-3185
room	-3186
▁books	-3187
▁barely	-3188
▁Ray	-3189
▁Hall	-3190
inn	-3191
▁search	-3192
▁II	-3193
▁twists	-3194
lled	-3195
▁Red	-3196
▁focus	-3197
***	-3198
▁appeal	-3199
▁opportun	-3200
▁fear	-3201
▁sympat	-3202
▁considered	-3203
▁inform	-3204
une	-3205
▁gag	-3206
ondon	-3207
▁kick	-3208
▁street	-3209
▁studio	-3210
▁redeem	-3211
▁culture	-3212
▁cause	-3213
▁contri	-3214
▁involving	-3215
▁OF	-3216
▁100	-3217
▁god	-3218
▁Fl	-3219
ength	-3220
▁Fred	-3221
▁hang	-3222
▁Afric	-3223
▁tough	-3224
▁repres	-3225
ana	-3226
▁Hitch	-3227
▁interview	-3228
▁impression	-3229
arily	-3230
▁crim	-3231
▁spect	-3232
▁genius	-3233
itary	-3234
▁Perhaps	-3235
▁scenery	-3236
For	-3237
POIL	-3238
LE	-3239
▁assum	-3240
▁succeed	-3241
▁stunning	-3242
mon	-3243
▁loud	-3244
that	-3245
▁basic	-3246
▁gem	-3247
▁ball	-3248
▁trip	-3249
▁shooting	-3250
▁impossible	-3251
fort	-3252
iles	-3253
▁fat	-3254
▁deliver	-3255
▁conclusion	-3256
iver	-3257
▁Ber	-3258
▁auth	-3259
▁pack	-3260
POILER	-3261
▁added	-3262
▁favour	-3263
▁considering	-3264
▁Sch	-3265
▁road	-3266
▁singing	-3267
▁Bru	-3268
▁carry	-3269
war	-3270
▁194	-3271
▁insult	-3272
▁issues	-3273
▁dro	-3274
▁affect	-3275
▁available	-3276
gen	-3277
▁Nic	-3278
▁island	-3279
▁manner	-3280
aus	-3281
appe	-3282
▁thinks	-3283
▁amateur	-3284
reg	-3285
▁suit	-3286
har	-3287
ras	-3288
▁Cor	-3289
▁smart	-3290
▁bomb	-3291
▁test	-3292
▁Indian	-3293
▁fashion	-3294
ify	-3295
▁Ham	-3296
ales	-3297
▁Mur	-3298
▁Way	-3299
▁unex	-3300
▁ST	-3301
night	-3302
▁London	-3303
▁Wh	-3304
▁Ye	-3305
▁10.	-3306
▁House	-3307
▁City	-3308
▁indust	-3309
▁likely	-3310
▁Bel	-3311
▁minor	-3312
erm	-3313
rian	-3314
▁Mel	-3315
▁wee	-3316
▁Sure	-3317
▁baby	-3318
ste	-3319
▁pun	-3320
▁Bob	-3321
▁Nor	-3322
ensive	-3323
▁recommended	-3324
aine	-3325
▁Mat	-3326
▁Very	-3327
rences	-3328
▁cold	-3329
▁Another	-3330
▁Mary	-3331
▁sexy	-3332
▁starring	-3333
▁photography	-3334
cock	-3335
▁sitting	-3336
you	-3337
▁state	-3338
▁ability	-3339
▁leaving	-3340
▁clot	-3341
▁Jones	-3342
▁century	-3343
AS	-3344
aur	-3345
iring	-3346
▁Best	-3347
estival	-3348
▁immediately	-3349
▁investig	-3350
▁suddenly	-3351
ai	-3352
▁Angel	-3353
▁managed	-3354
▁standard	-3355
▁adventure	-3356
kin	-3357
▁grap	-3358
▁rand	-3359
icated	-3360
▁magic	-3361
▁office	-3362
ID	-3363
▁rare	-3364
▁intrigu	-3365
▁computer	-3366
▁appearance	-3367
▁Stan	-3368
▁repl	-3369
▁normal	-3370
▁okay	-3371
▁runs	-3372
lessly	-3373
iding	-3374
▁notice	-3375
▁neither	-3376
▁audiences	-3377
opher	-3378
▁Austral	-3379
▁heavy	-3380
▁govern	-3381
▁reveal	-3382
▁charming	-3383
▁laughable	-3384
▁Alex	-3385
OV	-3386
rupt	-3387
▁prep	-3388
▁alive	-3389
▁pract	-3390
▁suppose	-3391
▁boyfriend	-3392
▁somewhere	-3393
aps	-3394
▁Bat	-3395
▁Hol	-3396
".<	-3397
▁uns	-3398
making	-3399
▁Charles	-3400
▁terrific	-3401
gress	-3402
anda	-3403
▁fresh	-3404
▁climax	-3405
▁door	-3406
▁terms	-3407
▁obsess	-3408
▁details	-3409
▁Co	-3410
irth	-3411
▁Stre	-3412
▁names	-3413
▁neigh	-3414
gl	-3415
now	-3416
izes	-3417
▁disappointing	-3418
▁comedies	-3419
▁touching	-3420
▁unbelievable	-3421
icide	-3422
▁High	-3423
▁Bur	-3424
▁Sci	-3425
▁month	-3426
▁beautifully	-3427
lect	-3428
▁Ann	-3429
esides	-3430
▁finish	-3431
▁natural	-3432
Th	-3433
▁ast	-3434
▁lab	-3435
▁Thom	-3436
▁shar	-3437
▁random	-3438
▁emotions	-3439
▁presence	-3440
▁curi	-3441
▁pers	-3442
▁nowhere	-3443
▁respons	-3444
yle	-3445
ison	-3446
▁def	-3447
▁cinematic	-3448
aff	-3449
▁adaptation	-3450
▁mult	-3451
▁thrown	-3452
▁painful	-3453
mes	-3454
uts	-3455
▁Than	-3456
▁bull	-3457
▁affair	-3458
▁revenge	-3459
just	-3460
field	-3461
owers	-3462
idence	-3463
▁describ	-3464
yl	-3465
awn	-3466
▁Smith	-3467
▁Director	-3468
ica	-3469
ands	-3470
ivers	-3471
oking	-3472
▁commer	-3473
▁zombie	-3474
ented	-3475
▁lovely	-3476
▁remains	-3477
vert	-3478
▁din	-3479
rad	-3480
▁disappointment	-3481
ades	-3482
aining	-3483
▁drink	-3484
▁offer	-3485
▁jo	-3486
▁author	-3487
▁conflict	-3488
ena	-3489
face	-3490
▁medioc	-3491
▁utterly	-3492
▁expectations	-3493
aven	-3494
▁changes	-3495
▁destroy	-3496
▁costumes	-3497
▁Ro	-3498
▁dig	-3499
▁animated	-3500
▁ultimately	-3501
iven	-3502
ature	-3503
board	-3504
part	-3505
▁charm	-3506
▁journey	-3507
str	-3508
▁Still	-3509
▁force	-3510
▁loves	-3511
▁stands	-3512
▁intended	-3513
▁plus	-3514
▁Earth	-3515
▁faith	-3516
▁loose	-3517
▁hoping	-3518
▁makers	-3519
▁witness	-3520
pro	-3521
▁Go	-3522
played	-3523
▁passion	-3524
▁Miss	-3525
▁ship	-3526
ressing	-3527
▁science	-3528
▁tired	-3529
riage	-3530
▁soldiers	-3531
▁flashback	-3532
vey	-3533
▁filming	-3534
▁constantly	-3535
AD	-3536
▁host	-3537
▁excuse	-3538
▁innocent	-3539
▁Hen	-3540
▁sto	-3541
ropri	-3542
▁Only	-3543
▁laughed	-3544
budget	-3545
▁Paris	-3546
▁six	-3547
▁chall	-3548
▁generally	-3549
▁surprisingly	-3550
chan	-3551
riff	-3552
.....	-3553
▁Step	-3554
▁tone	-3555
▁protagon	-3556
▁80	-3557
▁puts	-3558
▁Where	-3559
▁psycholog	-3560
stem	-3561
▁boss	-3562
▁teacher	-3563
▁squ	-3564
▁Show	-3565
elling	-3566
▁narrative	-3567
TH	-3568
▁demon	-3569
▁escap	-3570
▁feelings	-3571
▁outstanding	-3572
▁disg	-3573
anc	-3574
▁places	-3575
▁mistake	-3576
▁Ag	-3577
▁CG	-3578
itude	-3579
▁building	-3580
▁literally	-3581
▁soft	-3582
▁pieces	-3583
▁Sec	-3584
▁presented	-3585
CH	-3586
▁offe	-3587
▁absurd	-3588
▁approach	-3589
urch	-3590
▁Bruce	-3591
▁commercial	-3592
▁ur	-3593
▁chas	-3594
▁ener	-3595
▁student	-3596
▁Sat	-3597
?!	-3598
He	-3599
ares	-3600
ribe	-3601
ront	-3602
▁date	-3603
▁intense	-3604
▁program	-3605
▁mach	-3606
▁silent	-3607
▁Ir	-3608
▁Tr	-3609
▁themes	-3610
▁addition	-3611
yan	-3612
orts	-3613
▁surround	-3614
▁historical	-3615
▁fascinating	-3616
what	-3617
unting	-3618
▁million	-3619
IE	-3620
win	-3621
▁mysterious	-3622
onna	-3623
urate	-3624
▁influ	-3625
▁flicks	-3626
▁threat	-3627
▁students	-3628
oughly	-3629
▁aspects	-3630
▁contains	-3631
▁gold	-3632
▁ride	-3633
▁Chris	-3634
▁magn	-3635
▁Two	-3636
▁intern	-3637
▁serial	-3638
▁Ant	-3639
▁Bo	-3640
aint	-3641
▁dad	-3642
▁slowly	-3643
▁confusing	-3644
house	-3645
illing	-3646
▁Because	-3647
▁dim	-3648
ictor	-3649
▁pictures	-3650
ples	-3651
istent	-3652
▁individ	-3653
▁government	-3654
▁emp	-3655
▁Jean	-3656
▁length	-3657
▁burn	-3658
▁current	-3659
uit	-3660
ivil	-3661
▁leg	-3662
▁dread	-3663
▁fully	-3664
▁Bad	-3665
▁Dark	-3666
▁military	-3667
▁Gl	-3668
down	-3669
▁Hard	-3670
▁acts	-3671
▁spec	-3672
▁drive	-3673
▁folks	-3674
ability	-3675
▁reaction	-3676
▁Hitchcock	-3677
▁drunk	-3678
▁tradition	-3679
▁opportunity	-3680
mark	-3681
ploy	-3682
▁rip	-3683
anna	-3684
ached	-3685
oned	-3686
▁impressed	-3687
dered	-3688
▁numb	-3689
▁qual	-3690
▁Overall	-3691
IG	-3692
lyn	-3693
▁Harry	-3694
▁irrit	-3695
▁equally	-3696
▁likable	-3697
▁behav	-3698
▁artist	-3699
▁compelling	-3700
ander	-3701
▁Steve	-3702
▁subst	-3703
▁happening	-3704
▁Tar	-3705
▁cas	-3706
▁system	-3707
mat	-3708
▁Cal	-3709
▁****	-3710
▁hosp	-3711
▁People	-3712
▁Cat	-3713
entially	-3714
▁Nothing	-3715
▁knowing	-3716
▁lif	-3717
kespe	-3718
▁melod	-3719
▁proper	-3720
▁content	-3721
sey	-3722
good	-3723
▁edge	-3724
▁discuss	-3725
▁alien	-3726
▁lacks	-3727
▁rented	-3728
▁Charlie	-3729
▁discover	-3730
Not	-3731
ipp	-3732
rend	-3733
▁key	-3734
▁spl	-3735
▁clean	-3736
gue	-3737
▁Dou	-3738
▁Adam	-3739
▁disgust	-3740
▁relationships	-3741
▁include	-3742
hor	-3743
ken	-3744
heart	-3745
▁Though	-3746
▁disaster	-3747
▁Pol	-3748
▁South	-3749
▁contr	-3750
▁psych	-3751
▁Jeff	-3752
▁lived	-3753
▁remote	-3754
▁wondering	-3755
nat	-3756
▁Matt	-3757
ops	-3758
▁50	-3759
under	-3760
▁Fe	-3761
▁roll	-3762
▁sight	-3763
▁Stewart	-3764
▁appeared	-3765
▁collection	-3766
▁Tony	-3767
▁shall	-3768
orgeous	-3769
pendent	-3770
▁element	-3771
▁Sand	-3772
▁individual	-3773
asty	-3774
▁See	-3775
▁funniest	-3776
▁Martin	-3777
▁confused	-3778
▁Christian	-3779
gly	-3780
▁ban	-3781
▁ord	-3782
▁Mark	-3783
▁dies	-3784
▁paid	-3785
▁giant	-3786
▁anymore	-3787
▁delivers	-3788
ledge	-3789
▁process	-3790
uddy	-3791
▁div	-3792
▁East	-3793
▁thor	-3794
▁industry	-3795
▁developed	-3796
oph	-3797
▁18	-3798
▁Du	-3799
table	-3800
itions	-3801
▁chase	-3802
▁drawn	-3803
▁breath	-3804
▁Lo	-3805
▁joy	-3806
▁adds	-3807
▁mart	-3808
writer	-3809
▁critics	-3810
▁walking	-3811
▁mouth	-3812
ode	-3813
▁mainly	-3814
/2	-3815
▁Fox	-3816
▁drugs	-3817
▁forever	-3818
▁location	-3819
▁Tre	-3820
ision	-3821
▁West	-3822
▁init	-3823
Ch	-3824
▁WW	-3825
▁helps	-3826
▁legend	-3827
▁lighting	-3828
▁reminded	-3829
▁difference	-3830
▁IS	-3831
▁Bar	-3832
Overall	-3833
▁mediocre	-3834
▁12	-3835
exic	-3836
▁Fin	-3837
▁cell	-3838
▁impl	-3839
▁photograp	-3840
▁AND	-3841
▁hasn	-3842
▁desert	-3843
gged	-3844
erous	-3845
▁race	-3846
▁moral	-3847
▁trailer	-3848
ss	-3849
▁Ab	-3850
▁defe	-3851
▁producer	-3852
That	-3853
▁virt	-3854
▁share	-3855
▁vampire	-3856
▁highlight	-3857
ift	-3858
oses	-3859
▁Russian	-3860
▁forgotten	-3861
▁Bet	-3862
▁dubb	-3863
We	-3864
dow	-3865
▁hig	-3866
▁nons	-3867
▁correct	-3868
▁spectac	-3869
▁Shakespe	-3870
▁gorgeous	-3871
life	-3872
▁adults	-3873
▁dreams	-3874
▁oh	-3875
When	-3876
▁Yet	-3877
▁marriage	-3878
▁Nat	-3879
omething	-3880
Jo	-3881
pret	-3882
▁holes	-3883
do	-3884
▁pil	-3885
▁hospital	-3886
ta	-3887
▁Gar	-3888
▁Many	-3889
▁club	-3890
▁faces	-3891
▁stuck	-3892
▁creative	-3893
▁negative	-3894
mbol	-3895
tend	-3896
▁Jew	-3897
▁seg	-3898
▁news	-3899
▁victims	-3900
AL	-3901
ology	-3902
▁flaws	-3903
▁oppos	-3904
▁honestly	-3905
▁attractive	-3906
wr	-3907
uel	-3908
raid	-3909
uous	-3910
orter	-3911
▁crow	-3912
▁trag	-3913
ctions	-3914
▁offers	-3915
▁Rog	-3916
pected	-3917
▁naked	-3918
▁unreal	-3919
▁finding	-3920
▁melodra	-3921
▁motion	-3922
▁allowed	-3923
▁channel	-3924
▁Jon	-3925
▁Spe	-3926
▁lover	-3927
▁multi	-3928
▁fault	-3929
▁rated	-3930
▁standards	-3931
ini	-3932
wor	-3933
▁Day	-3934
▁amb	-3935
▁thank	-3936
▁everybody	-3937
hop	-3938
aries	-3939
▁Never	-3940
▁Robin	-3941
▁ahead	-3942
▁zombies	-3943
ka	-3944
cra	-3945
soever	-3946
▁image	-3947
▁impact	-3948
▁fiction	-3949
▁detective	-3950
▁Cam	-3951
▁serv	-3952
▁Canad	-3953
▁ready	-3954
▁twice	-3955
aches	-3956
▁picked	-3957
▁rout	-3958
▁Mexic	-3959
▁round	-3960
▁imagination	-3961
To	-3962
▁Ter	-3963
▁More	-3964
▁prim	-3965
ilities	-3966
▁nobody	-3967
▁object	-3968
▁animals	-3969
▁information	-3970
▁bi	-3971
▁Steven	-3972
▁answer	-3973
▁Despite	-3974
▁falling	-3975
she	-3976
ener	-3977
▁unus	-3978
▁frust	-3979
▁market	-3980
.,	-3981
TV	-3982
see	-3983
anted	-3984
illed	-3985
▁wide	-3986
▁Young	-3987
▁eight	-3988
▁fright	-3989
▁becoming	-3990
aud	-3991
▁gri	-3992
▁Billy	-3993
▁comparis	-3994
ita	-3995
verse	-3996
▁tragic	-3997
entional	-3998
▁whatsoever	-3999
▁Bas	-4000
▁double	-4001
▁underst	-4002
AY	-4003
▁eat	-4004
▁slap	-4005
▁40	-4006
▁Ms	-4007
text	-4008
▁aim	-4009
▁area	-4010
film	-4011
▁Walk	-4012
▁formula	-4013
▁Christopher	-4014
azz	-4015
----	-4016
ushed	-4017
▁Kelly	-4018
▁Story	-4019
▁board	-4020
▁moved	-4021
▁wooden	-4022
▁suicide	-4023
▁Americans	-4024
▁youth	-4025
▁bottom	-4026
▁worthy	-4027
▁willing	-4028
▁actresses	-4029
▁childhood	-4030
LY	-4031
eper	-4032
▁cops	-4033
▁proves	-4034
▁putting	-4035
▁shouldn	-4036
▁scientist	-4037
▁thoroughly	-4038
IC	-4039
azy	-4040
▁Ford	-4041
▁describe	-4042
▁VH	-4043
▁base	-4044
▁resc	-4045
▁unne	-4046
▁rac	-4047
▁fort	-4048
▁hide	-4049
gar	-4050
lock	-4051
▁kidn	-4052
▁pair	-4053
▁summ	-4054
ium	-4055
ovies	-4056
▁Green	-4057
▁Victor	-4058
▁latter	-4059
▁ON	-4060
▁Dick	-4061
▁drag	-4062
▁freak	-4063
▁helped	-4064
▁member	-4065
▁provides	-4066
eal	-4067
ffe	-4068
▁Phil	-4069
▁fellow	-4070
▁disappe	-4071
▁pen	-4072
▁possess	-4073
▁seemingly	-4074
▁Mus	-4075
asure	-4076
▁Sl	-4077
inct	-4078
oted	-4079
rick	-4080
▁bits	-4081
▁onto	-4082
▁justice	-4083
▁superior	-4084
▁personality	-4085
/10.	-4086
inci	-4087
▁cele	-4088
▁professional	-4089
xual	-4090
▁Carl	-4091
▁explan	-4092
▁station	-4093
▁followed	-4094
▁shocking	-4095
▁McC	-4096
▁Ram	-4097
▁unw	-4098
▁convers	-4099
▁redeeming	-4100
▁Anyway	-4101
)<	-4102
▁70'	-4103
▁Both	-4104
▁warm	-4105
▁Shakespeare	-4106
thur	-4107
▁Moo	-4108
▁Wil	-4109
▁symbol	-4110
▁Everything	-4111
▁friendship	-4112
Bl	-4113
▁70	-4114
▁lose	-4115
herent	-4116
▁compare	-4117
▁deserve	-4118
▁?	-4119
▁hook	-4120
▁afraid	-4121
ules	-4122
▁pra	-4123
stein	-4124
▁contem	-4125
▁occasion	-4126
mi	-4127
ech	-4128
▁Lyn	-4129
▁Too	-4130
▁wise	-4131
▁aside	-4132
itor	-4133
odies	-4134
▁noir	-4135
▁actions	-4136
abl	-4137
has	-4138
aton	-4139
ique	-4140
▁Barb	-4141
▁blind	-4142
▁turning	-4143
▁commentary	-4144
▁den	-4145
▁rubb	-4146
▁nasty	-4147
▁quiet	-4148
▁merely	-4149
▁intriguing	-4150
roc	-4151
▁opera	-4152
▁watchable	-4153
ifer	-4154
Americ	-4155
▁streng	-4156
erk	-4157
arded	-4158
▁angry	-4159
▁reach	-4160
Un	-4161
ousy	-4162
▁depart	-4163
▁energy	-4164
▁memory	-4165
▁pleasure	-4166
ios	-4167
▁led	-4168
▁broad	-4169
▁achieve	-4170
▁murders	-4171
▁realized	-4172
▁favourite	-4173
▁Part	-4174
▁comedic	-4175
▁wanting	-4176
agers	-4177
▁phone	-4178
▁seconds	-4179
▁Den	-4180
▁asked	-4181
▁crowd	-4182
▁sadly	-4183
▁trust	-4184
▁clothes	-4185
▁repeated	-4186
ddie	-4187
▁knock	-4188
▁tears	-4189
▁encoun	-4190
▁listen	-4191
▁Sad	-4192
▁Western	-4193
▁Mag	-4194
agger	-4195
▁Super	-4196
▁bright	-4197
▁insight	-4198
▁supposedly	-4199
inese	-4200
▁agent	-4201
▁chick	-4202
▁horse	-4203
▁Jackson	-4204
▁unexpected	-4205
year	-4206
▁/>-	-4207
▁Once	-4208
▁Ryan	-4209
father	-4210
▁torture	-4211
rue	-4212
▁Jr	-4213
▁ge	-4214
▁tar	-4215
kward	-4216
owing	-4217
▁damn	-4218
▁continue	-4219
▁Sar	-4220
▁sucks	-4221
▁Little	-4222
hod	-4223
aire	-4224
▁CGI	-4225
oring	-4226
▁personally	-4227
lev	-4228
rog	-4229
zen	-4230
leep	-4231
▁weap	-4232
▁celebr	-4233
▁martial	-4234
▁teenage	-4235
AC	-4236
▁scare	-4237
▁surely	-4238
▁thanks	-4239
▁perform	-4240
▁tragedy	-4241
▁creature	-4242
▁pu	-4243
▁Did	-4244
▁bene	-4245
urally	-4246
entious	-4247
▁planet	-4248
▁cal	-4249
▁held	-4250
▁ugly	-4251
▁began	-4252
▁Ac	-4253
otes	-4254
▁Naz	-4255
▁Henry	-4256
▁dying	-4257
▁accurate	-4258
▁Jason	-4259
▁prefer	-4260
▁numbers	-4261
▁struggle	-4262
▁sour	-4263
▁thin	-4264
▁stink	-4265
▁inspired	-4266
ban	-4267
▁Av	-4268
▁Dam	-4269
▁VHS	-4270
▁provide	-4271
UT	-4272
▁mine	-4273
▁Their	-4274
▁brothers	-4275
▁physical	-4276
Now	-4277
▁du	-4278
▁Wal	-4279
▁Girl	-4280
▁brutal	-4281
▁wearing	-4282
▁anywhere	-4283
▁resemb	-4284
▁awkward	-4285
▁central	-4286
▁deserved	-4287
▁Te	-4288
cking	-4289
▁loving	-4290
ja	-4291
▁Er	-4292
gent	-4293
olds	-4294
ishes	-4295
▁surprising	-4296
iac	-4297
▁IN	-4298
rate	-4299
▁Lad	-4300
▁gags	-4301
▁Space	-4302
▁blond	-4303
▁Williams	-4304
SE	-4305
Any	-4306
requ	-4307
▁env	-4308
▁ham	-4309
▁ted	-4310
bered	-4311
▁lies	-4312
▁13	-4313
▁load	-4314
▁Kevin	-4315
▁mount	-4316
▁noticed	-4317
▁apartment	-4318
acy	-4319
ville	-4320
icious	-4321
▁plane	-4322
Be	-4323
▁Jes	-4324
▁epic	-4325
▁games	-4326
especially	-4327
▁necessary	-4328
lla	-4329
Some	-4330
▁Rus	-4331
▁tur	-4332
ators	-4333
▁sell	-4334
▁Jerry	-4335
▁separ	-4336
▁Batman	-4337
▁unknown	-4338
▁strength	-4339
▁wonderfully	-4340
AM	-4341
▁Ev	-4342
asts	-4343
illa	-4344
▁Moore	-4345
▁occur	-4346
▁distract	-4347
▁magnific	-4348
.'	-4349
ser	-4350
bian	-4351
▁Sus	-4352
▁accom	-4353
ropriate	-4354
apped	-4355
▁coun	-4356
undred	-4357
▁Stephen	-4358
▁independent	-4359
oks	-4360
▁pacing	-4361
▁product	-4362
▁intelligence	-4363
ancy	-4364
▁bal	-4365
▁explos	-4366
▁reminds	-4367
▁artistic	-4368
osh	-4369
▁Sy	-4370
Well	-4371
omen	-4372
▁soap	-4373
▁memories	-4374
hered	-4375
▁stock	-4376
▁Please	-4377
▁relative	-4378
bad	-4379
urity	-4380
▁lets	-4381
▁relie	-4382
▁account	-4383
ademy	-4384
aylor	-4385
irgin	-4386
▁Thomas	-4387
rors	-4388
stal	-4389
▁Law	-4390
▁Men	-4391
▁buff	-4392
▁priv	-4393
▁aware	-4394
▁belong	-4395
▁deeply	-4396
▁understanding	-4397
iance	-4398
▁block	-4399
▁surreal	-4400
▁locations	-4401
plot	-4402
ament	-4403
▁Allen	-4404
▁employ	-4405
ilst	-4406
miss	-4407
▁thats	-4408
▁anybody	-4409
De	-4410
nie	-4411
stick	-4412
▁mild	-4413
▁thus	-4414
▁holds	-4415
▁scared	-4416
▁filmmaker	-4417
▁Sil	-4418
▁Life	-4419
▁tend	-4420
▁blame	-4421
▁rubbish	-4422
▁Bond	-4423
▁priest	-4424
▁regret	-4425
▁arts	-4426
▁introduced	-4427
▁bank	-4428
▁tour	-4429
▁motiv	-4430
▁Horror	-4431
ateg	-4432
▁Jud	-4433
▁thous	-4434
pective	-4435
▁recall	-4436
ugg	-4437
ario	-4438
hern	-4439
▁deb	-4440
▁hotel	-4441
ominated	-4442
▁unusual	-4443
▁knowledge	-4444
▁religious	-4445
iful	-4446
▁Pal	-4447
▁mob	-4448
▁asks	-4449
▁bland	-4450
▁rarely	-4451
▁includes	-4452
aly	-4453
itz	-4454
teen	-4455
▁cow	-4456
▁mut	-4457
tered	-4458
▁food	-4459
▁plots	-4460
anic	-4461
▁Win	-4462
▁empt	-4463
▁hint	-4464
▁remarkable	-4465
spe	-4466
▁Hel	-4467
▁sin	-4468
▁player	-4469
▁subtit	-4470
▁Chinese	-4471
▁progress	-4472
there	-4473
▁Mike	-4474
▁twenty	-4475
▁learned	-4476
▁limited	-4477
▁finished	-4478
mar	-4479
hero	-4480
▁Hit	-4481
▁born	-4482
▁enth	-4483
▁debut	-4484
▁opposite	-4485
lle	-4486
star	-4487
▁insane	-4488
▁engaging	-4489
ET	-4490
enge	-4491
ewis	-4492
▁Tex	-4493
ording	-4494
▁hated	-4495
▁hundred	-4496
▁Im	-4497
eman	-4498
▁lay	-4499
▁tape	-4500
isters	-4501
▁target	-4502
▁Brother	-4503
▁captured	-4504
▁speaking	-4505
imal	-4506
oons	-4507
▁months	-4508
ores	-4509
▁rape	-4510
However	-4511
▁Having	-4512
▁belief	-4513
▁manage	-4514
▁ver	-4515
rical	-4516
▁Hell	-4517
▁hurt	-4518
▁loss	-4519
▁craft	-4520
▁elect	-4521
▁assist	-4522
▁transl	-4523
,000	-4524
▁ris	-4525
anish	-4526
unter	-4527
▁birth	-4528
▁comparison	-4529
anity	-4530
▁radio	-4531
▁Taylor	-4532
▁nicely	-4533
▁unnecessary	-4534
Sc	-4535
▁DO	-4536
▁Anne	-4537
▁fool	-4538
▁White	-4539
▁smile	-4540
▁vision	-4541
▁efforts	-4542
▁references	-4543
▁explanation	-4544
bra	-4545
cho	-4546
ilos	-4547
inda	-4548
▁Joan	-4549
▁skin	-4550
▁leader	-4551
▁players	-4552
hant	-4553
plic	-4554
▁army	-4555
▁Brown	-4556
▁soldier	-4557
▁theatre	-4558
iron	-4559
▁wond	-4560
▁tight	-4561
▁mental	-4562
▁accompl	-4563
Oh	-4564
bul	-4565
▁Kid	-4566
▁Davis	-4567
▁summer	-4568
▁neighbor	-4569
▁technical	-4570
▁responsible	-4571
▁der	-4572
▁les	-4573
▁junk	-4574
▁visit	-4575
▁returns	-4576
▁hadn	-4577
▁Eddie	-4578
▁crappy	-4579
▁creating	-4580
▁App	-4581
terest	-4582
▁heads	-4583
soci	-4584
▁Dor	-4585
▁boo	-4586
▁Danny	-4587
▁Since	-4588
▁spoof	-4589
▁dangerous	-4590
ipul	-4591
▁REA	-4592
▁grat	-4593
▁lacking	-4594
ugs	-4595
▁cable	-4596
▁uncon	-4597
▁gotten	-4598
:<	-4599
esh	-4600
▁Ol	-4601
▁na	-4602
although	-4603
-1	-4604
don	-4605
▁la	-4606
▁calls	-4607
ennifer	-4608
▁advice	-4609
▁fights	-4610
director	-4611
No	-4612
aren	-4613
they	-4614
▁ner	-4615
entle	-4616
ivity	-4617
▁below	-4618
▁owner	-4619
▁humorous	-4620
▁irritating	-4621
uct	-4622
▁bur	-4623
▁mixed	-4624
▁witty	-4625
▁treated	-4626
▁WH	-4627
elle	-4628
rous	-4629
▁net	-4630
▁pet	-4631
▁hits	-4632
ration	-4633
ensional	-4634
▁bab	-4635
break	-4636
cient	-4637
natural	-4638
▁Everyone	-4639
▁award	-4640
▁field	-4641
American	-4642
▁proceed	-4643
▁murdered	-4644
▁explained	-4645
???	-4646
het	-4647
cture	-4648
pless	-4649
acting	-4650
▁floor	-4651
▁bigger	-4652
▁lovers	-4653
uh	-4654
▁Les	-4655
▁Roy	-4656
▁frame	-4657
▁vehic	-4658
▁constant	-4659
▁Rom	-4660
icked	-4661
▁Sant	-4662
▁deals	-4663
▁hopes	-4664
imental	-4665
▁relate	-4666
▁talents	-4667
▁behavior	-4668
II	-4669
urse	-4670
▁goof	-4671
▁aband	-4672
▁issue	-4673
▁Arthur	-4674
▁criminal	-4675
▁nonsense	-4676
▁signific	-4677
reck	-4678
▁Alan	-4679
▁Thing	-4680
▁civil	-4681
▁Johnny	-4682
▁finest	-4683
▁dealing	-4684
▁foreign	-4685
▁partner	-4686
▁terribly	-4687
▁Was	-4688
anced	-4689
unted	-4690
▁Look	-4691
▁humanity	-4692
rs	-4693
."<	-4694
John	-4695
▁Ron	-4696
▁bot	-4697
atory	-4698
▁boat	-4699
▁cant	-4700
▁Howard	-4701
▁bloody	-4702
▁parody	-4703
▁interpret	-4704
▁11	-4705
▁hyp	-4706
▁Pres	-4707
looking	-4708
ruction	-4709
........	-4710
gn	-4711
ogy	-4712
▁tem	-4713
iling	-4714
▁stret	-4715
▁Master	-4716
▁circum	-4717
▁skills	-4718
▁survive	-4719
▁card	-4720
▁Death	-4721
▁incre	-4722
stit	-4723
▁Far	-4724
▁Max	-4725
▁sac	-4726
alled	-4727
ounds	-4728
▁educ	-4729
▁suck	-4730
▁kinda	-4731
▁Columb	-4732
▁hidden	-4733
▁capture	-4734
▁unfunny	-4735
▁community	-4736
mo	-4737
iro	-4738
▁unint	-4739
▁sucked	-4740
fortable	-4741
▁keeping	-4742
▁machine	-4743
▁experien	-4744
zan	-4745
▁Wat	-4746
ennis	-4747
▁vote	-4748
▁pretentious	-4749
irk	-4750
ember	-4751
ooper	-4752
▁categ	-4753
▁chore	-4754
▁remain	-4755
▁reviewers	-4756
ency	-4757
▁miser	-4758
▁prove	-4759
▁remembered	-4760
.5	-4761
At	-4762
▁Ap	-4763
▁text	-4764
▁Those	-4765
▁flying	-4766
▁numerous	-4767
▁desperate	-4768
isc	-4769
abor	-4770
▁opt	-4771
thony	-4772
▁Cass	-4773
aker	-4774
▁ing	-4775
▁Wayne	-4776
▁England	-4777
▁driving	-4778
▁represent	-4779
agal	-4780
cise	-4781
etic	-4782
▁gru	-4783
holic	-4784
▁pilot	-4785
▁incomp	-4786
▁starting	-4787
des	-4788
screen	-4789
▁print	-4790
▁sheer	-4791
▁dreadful	-4792
▁included	-4793
▁instance	-4794
▁monsters	-4795
▁Cr	-4796
sell	-4797
icate	-4798
▁Eric	-4799
▁Okay	-4800
▁cars	-4801
▁Brian	-4802
▁protagonist	-4803
uman	-4804
▁sed	-4805
▁gory	-4806
▁dress	-4807
▁results	-4808
▁villains	-4809
bell	-4810
▁Nick	-4811
edding	-4812
▁growing	-4813
▁therefore	-4814
▁stereotypes	-4815
dra	-4816
ache	-4817
ques	-4818
▁mini	-4819
▁Blood	-4820
▁troub	-4821
▁expert	-4822
▁pulled	-4823
▁winning	-4824
);	-4825
oh	-4826
yes	-4827
▁Es	-4828
▁Sean	-4829
▁earn	-4830
▁resol	-4831
Sp	-4832
▁Hal	-4833
▁Lynch	-4834
▁study	-4835
POILERS	-4836
▁mission	-4837
▁circumst	-4838
bur	-4839
nam	-4840
▁desp	-4841
▁heroine	-4842
▁teenagers	-4843
ued	-4844
▁EVER	-4845
▁site	-4846
▁steal	-4847
▁determ	-4848
▁environ	-4849
▁ordinary	-4850
▁concerned	-4851
ILL	-4852
irm	-4853
vit	-4854
▁Li	-4855
They	-4856
▁guns	-4857
▁cruel	-4858
▁humans	-4859
ante	-4860
mare	-4861
vest	-4862
▁dated	-4863
▁France	-4864
▁context	-4865
▁realism	-4866
▁IT	-4867
core	-4868
wolf	-4869
▁Louis	-4870
▁finale	-4871
▁contrast	-4872
▁magnificent	-4873
▁Dar	-4874
▁Dem	-4875
▁Out	-4876
▁seat	-4877
▁shop	-4878
hearted	-4879
▁philos	-4880
▁intellect	-4881
▁delightful	-4882
▁discovered	-4883
▁unrealistic	-4884
▁vs	-4885
umps	-4886
▁Hay	-4887
▁Thank	-4888
▁grace	-4889
glas	-4890
▁pit	-4891
▁Jose	-4892
▁Texas	-4893
ication	-4894
▁charis	-4895
▁challeng	-4896
▁generation	-4897
rat	-4898
ilies	-4899
▁cuts	-4900
▁grew	-4901
▁safe	-4902
▁church	-4903
▁lesson	-4904
▁satire	-4905
▁received	-4906
▁somebody	-4907
▁La	-4908
▁Mrs	-4909
orted	-4910
finitely	-4911
▁manipul	-4912
▁psychological	-4913
ked	-4914
ups	-4915
mble	-4916
▁fif	-4917
ribut	-4918
▁Lewis	-4919
▁corny	-4920
▁paper	-4921
▁animal	-4922
▁assass	-4923
▁regular	-4924
▁Del	-4925
▁Wild	-4926
ushing	-4927
▁model	-4928
▁levels	-4929
▁confront	-4930
Rob	-4931
ulf	-4932
▁(2	-4933
▁Ty	-4934
▁Barry	-4935
▁imagin	-4936
▁contrived	-4937
▁Australian	-4938
aybe	-4939
▁bath	-4940
▁blue	-4941
▁empty	-4942
▁Island	-4943
▁breaks	-4944
▁princi	-4945
▁African	-4946
▁consist	-4947
ama	-4948
nox	-4949
▁Pre	-4950
While	-4951
▁Capt	-4952
▁Gary	-4953
▁Mars	-4954
▁frank	-4955
▁screw	-4956
▁teach	-4957
arently	-4958
▁speech	-4959
▁window	-4960
▁officer	-4961
▁woods	-4962
tw	-4963
top	-4964
▁60	-4965
▁sch	-4966
▁cameo	-4967
▁frequ	-4968
▁overly	-4969
▁visuals	-4970
▁involves	-4971
ether	-4972
▁saved	-4973
▁singer	-4974
ometimes	-4975
▁genuinely	-4976
▁spectacular	-4977
worth	-4978
▁fate	-4979
▁hall	-4980
▁park	-4981
▁media	-4982
▁Andrew	-4983
▁underrated	-4984
OL	-4985
!).	-4986
▁Ho	-4987
hold	-4988
iser	-4989
oween	-4990
▁grown	-4991
▁speed	-4992
▁European	-4993
▁amateurish	-4994
▁combination	-4995
▁perspective	-4996
▁ic	-4997
ueen	-4998
▁arm	-4999
▁cash	-5000
ivered	-5001
▁gonna	-5002
▁morning	-5003
▁connection	-5004
▁dry	-5005
▁ens	-5006
▁lat	-5007
▁intent	-5008
▁gangster	-5009
▁teenager	-5010
▁Sin	-5011
▁vac	-5012
ading	-5013
point	-5014
▁higher	-5015
▁display	-5016
▁shallow	-5017
▁revealed	-5018
tes	-5019
ube	-5020
▁25	-5021
▁Sn	-5022
▁Asian	-5023
▁cares	-5024
▁Morgan	-5025
▁edited	-5026
▁Spanish	-5027
▁corrupt	-5028
ails	-5029
▁BBC	-5030
▁Mer	-5031
▁YOU	-5032
▁Kenn	-5033
luding	-5034
▁green	-5035
▁marry	-5036
▁refres	-5037
▁theaters	-5038
▁continues	-5039
yer	-5040
hent	-5041
kins	-5042
▁Cent	-5043
▁THIS	-5044
▁Viet	-5045
▁tack	-5046
▁associ	-5047
▁Mal	-5048
▁nin	-5049
▁tun	-5050
ching	-5051
oting	-5052
porary	-5053
▁range	-5054
▁veter	-5055
▁Douglas	-5056
▁attitude	-5057
tle	-5058
uls	-5059
away	-5060
▁fle	-5061
▁syn	-5062
After	-5063
ordon	-5064
▁yeah	-5065
▁types	-5066
▁executed	-5067
aa	-5068
arc	-5069
ummy	-5070
▁kiss	-5071
▁gross	-5072
▁choose	-5073
▁featuring	-5074
uther	-5075
▁wealth	-5076
▁Anthony	-5077
▁failure	-5078
▁originally	-5079
▁NO	-5080
omed	-5081
some	-5082
▁fund	-5083
▁Hitler	-5084
▁Second	-5085
▁forces	-5086
▁relief	-5087
▁families	-5088
▁laughter	-5089
▁provided	-5090
▁described	-5091
iy	-5092
Also	-5093
iens	-5094
ilty	-5095
▁Mic	-5096
▁feet	-5097
▁ring	-5098
▁uncom	-5099
▁research	-5100
abb	-5101
With	-5102
idge	-5103
▁Ver	-5104
▁deg	-5105
▁toward	-5106
▁warning	-5107
ped	-5108
lear	-5109
▁press	-5110
▁purcha	-5111
▁discovers	-5112
▁existence	-5113
▁Leon	-5114
▁snow	-5115
▁vide	-5116
▁heroes	-5117
▁sitcom	-5118
uk	-5119
sec	-5120
cies	-5121
usive	-5122
▁sake	-5123
▁Keaton	-5124
▁decade	-5125
▁rental	-5126
▁whilst	-5127
▁dressed	-5128
▁delivered	-5129
LLY	-5130
bly	-5131
▁/>1	-5132
▁Jess	-5133
▁Mont	-5134
▁bear	-5135
▁obsc	-5136
▁Broad	-5137
▁judge	-5138
▁organ	-5139
▁curious	-5140
▁extraord	-5141
▁flashbacks	-5142
▁fal	-5143
▁sun	-5144
iforn	-5145
reedom	-5146
uitous	-5147
▁Julie	-5148
▁Which	-5149
▁brilliantly	-5150
▁ju	-5151
oken	-5152
▁Jan	-5153
abeth	-5154
▁lousy	-5155
▁advert	-5156
▁altern	-5157
▁tedious	-5158
acc	-5159
▁Haw	-5160
▁vul	-5161
▁king	-5162
▁sole	-5163
rifying	-5164
▁assume	-5165
▁unable	-5166
▁Academy	-5167
▁sympathetic	-5168
▁occasionally	-5169
amb	-5170
fit	-5171
rix	-5172
▁Pac	-5173
▁naive	-5174
RI	-5175
ano	-5176
othy	-5177
▁Sund	-5178
▁disp	-5179
▁Daniel	-5180
uppet	-5181
▁costs	-5182
▁desire	-5183
▁marvel	-5184
▁capable	-5185
▁decision	-5186
ums	-5187
outs	-5188
plin	-5189
▁grade	-5190
▁skill	-5191
▁sword	-5192
▁sequels	-5193
▁portrays	-5194
▁refreshing	-5195
▁)	-5196
ault	-5197
▁Wow	-5198
▁Lord	-5199
▁ages	-5200
▁built	-5201
iration	-5202
▁Before	-5203
▁viewed	-5204
▁walked	-5205
▁entertained	-5206
law	-5207
usi	-5208
▁bat	-5209
▁Camp	-5210
▁Hart	-5211
▁path	-5212
hentic	-5213
▁peace	-5214
▁excited	-5215
▁graphic	-5216
▁disgusting	-5217
abr	-5218
▁Par	-5219
▁Val	-5220
▁send	-5221
▁Franc	-5222
▁Jennifer	-5223
▁football	-5224
▁Cle	-5225
▁obl	-5226
▁sea	-5227
▁Andy	-5228
▁scar	-5229
orious	-5230
▁Jimmy	-5231
▁creates	-5232
▁protect	-5233
▁stopped	-5234
▁horribly	-5235
Re	-5236
done	-5237
▁Rod	-5238
▁steals	-5239
▁handsome	-5240
▁environment	-5241
▁da	-5242
▁cyn	-5243
▁sal	-5244
urday	-5245
▁Trek	-5246
▁Miche	-5247
▁logic	-5248
▁punch	-5249
▁eating	-5250
▁saving	-5251
▁village	-5252
entionally	-5253
RA	-5254
nda	-5255
ummer	-5256
▁embarrassing	-5257
run	-5258
ulp	-5259
yal	-5260
▁Int	-5261
aving	-5262
ients	-5263
▁Coll	-5264
▁tick	-5265
▁loses	-5266
▁seven	-5267
▁majority	-5268
▁reviewer	-5269
UN	-5270
▁di	-5271
ights	-5272
ifornia	-5273
▁proved	-5274
▁creatures	-5275
GE	-5276
oom	-5277
▁bag	-5278
theless	-5279
▁Seagal	-5280
amily	-5281
stream	-5282
▁propag	-5283
▁ultimate	-5284
▁treatment	-5285
ls	-5286
anks	-5287
▁Last	-5288
histic	-5289
orting	-5290
▁Harris	-5291
▁involve	-5292
▁promise	-5293
▁believes	-5294
▁slapstick	-5295
made	-5296
▁van	-5297
First	-5298
▁Plus	-5299
▁Wars	-5300
levant	-5301
▁Larry	-5302
▁Barbara	-5303
▁Festival	-5304
fl	-5305
aded	-5306
inis	-5307
▁vol	-5308
▁Jesus	-5309
▁inept	-5310
▁subtitles	-5311
▁essentially	-5312
▁circumstances	-5313
aken	-5314
▁Ell	-5315
▁zero	-5316
▁asking	-5317
▁broken	-5318
▁lesbian	-5319
▁normally	-5320
▁strongly	-5321
▁screaming	-5322
▁depressing	-5323
▁gratuitous	-5324
IGH	-5325
cul	-5326
than	-5327
▁proud	-5328
▁Gordon	-5329
▁hyster	-5330
▁meeting	-5331
▁cartoons	-5332
▁thoughts	-5333
▁qualities	-5334
ixt	-5335
Then	-5336
tain	-5337
▁fly	-5338
▁hey	-5339
▁hur	-5340
▁tor	-5341
▁redu	-5342
▁sharp	-5343
▁Ma	-5344
ashed	-5345
▁glass	-5346
▁truck	-5347
viously	-5348
▁Really	-5349
▁asleep	-5350
▁dubbed	-5351
▁Germany	-5352
▁endless	-5353
▁Dun	-5354
▁lucky	-5355
▁talks	-5356
▁colour	-5357
▁ladies	-5358
▁consequ	-5359
▁murdere	-5360
▁shocked	-5361
▁expression	-5362
roll	-5363
ashes	-5364
▁inex	-5365
▁Roman	-5366
▁weeks	-5367
▁powers	-5368
▁produce	-5369
▁evidence	-5370
▁pleasant	-5371
mond	-5372
▁Add	-5373
▁Gene	-5374
▁ende	-5375
▁opens	-5376
ogether	-5377
▁Albert	-5378
atherine	-5379
▁twisted	-5380
▁classics	-5381
asm	-5382
▁Moon	-5383
▁Rose	-5384
▁Stone	-5385
▁voices	-5386
▁substance	-5387
▁portraying	-5388
BO	-5389
isa	-5390
nes	-5391
▁BE	-5392
▁Sho	-5393
▁bre	-5394
▁pal	-5395
osexual	-5396
▁Street	-5397
▁accomp	-5398
▁bodies	-5399
▁compan	-5400
▁ruined	-5401
▁painfully	-5402
She	-5403
mind	-5404
reek	-5405
ucky	-5406
▁Time	-5407
▁harsh	-5408
ausible	-5409
▁Guy	-5410
▁Luc	-5411
owell	-5412
alling	-5413
▁caused	-5414
▁rescue	-5415
▁Chaplin	-5416
teresting	-5417
▁appealing	-5418
▁authentic	-5419
▁controvers	-5420
Fi	-5421
lder	-5422
▁/>2	-5423
arian	-5424
▁appl	-5425
▁fits	-5426
▁spin	-5427
▁guest	-5428
▁bringing	-5429
ruct	-5430
▁Ted	-5431
▁gas	-5432
tended	-5433
▁teens	-5434
▁passed	-5435
▁routine	-5436
▁vehicle	-5437
ashington	-5438
▁revolution	-5439
▁traditional	-5440
▁exploitation	-5441
BI	-5442
phy	-5443
atra	-5444
▁Kat	-5445
▁Kim	-5446
riday	-5447
ungle	-5448
▁Kong	-5449
▁Lady	-5450
formed	-5451
▁North	-5452
▁witch	-5453
▁dollars	-5454
Even	-5455
kend	-5456
pent	-5457
sing	-5458
▁Pict	-5459
▁emer	-5460
▁fict	-5461
▁Being	-5462
▁table	-5463
▁Jackie	-5464
ker	-5465
gers	-5466
buster	-5467
▁Alice	-5468
▁Cinem	-5469
▁unfortun	-5470
▁emotionally	-5471
urns	-5472
▁Bor	-5473
class	-5474
imate	-5475
▁Again	-5476
▁Anyone	-5477
▁counter	-5478
▁worthwhile	-5479
▁Po	-5480
icit	-5481
itiz	-5482
▁Ros	-5483
▁VER	-5484
▁bond	-5485
Why	-5486
oooo	-5487
▁fame	-5488
▁pity	-5489
▁quir	-5490
▁excit	-5491
▁invent	-5492
▁promising	-5493
▁experienced	-5494
Of	-5495
▁UK	-5496
beat	-5497
pass	-5498
▁Fre	-5499
▁Get	-5500
▁Run	-5501
▁lone	-5502
▁Irish	-5503
▁cring	-5504
telling	-5505
▁Univers	-5506
▁whenever	-5507
za	-5508
▁clue	-5509
▁spends	-5510
▁enthusi	-5511
▁evening	-5512
▁hearing	-5513
▁depicted	-5514
▁standing	-5515
▁conce	-5516
▁angles	-5517
▁streets	-5518
Pl	-5519
nal	-5520
▁Rem	-5521
▁pan	-5522
▁wel	-5523
▁cook	-5524
▁forth	-5525
▁price	-5526
▁accents	-5527
▁nominated	-5528
▁Washington	-5529
▁experiences	-5530
lim	-5531
▁2.	-5532
▁SH	-5533
▁Lam	-5534
▁blow	-5535
▁term	-5536
▁Simon	-5537
▁facts	-5538
▁idiot	-5539
▁popul	-5540
▁refer	-5541
▁necess	-5542
▁descript	-5543
▁versions	-5544
abe	-5545
▁Brad	-5546
rating	-5547
▁ancient	-5548
▁recognize	-5549
ij	-5550
ww	-5551
oop	-5552
▁TO	-5553
whel	-5554
▁hol	-5555
etime	-5556
itter	-5557
▁Eliz	-5558
▁Avoid	-5559
▁prior	-5560
▁allows	-5561
▁festival	-5562
dom	-5563
oyd	-5564
▁Kate	-5565
mother	-5566
▁sides	-5567
▁speaks	-5568
▁figured	-5569
▁believed	-5570
▁identity	-5571
IR	-5572
upt	-5573
▁Comm	-5574
▁Long	-5575
▁compos	-5576
▁convey	-5577
▁makeup	-5578
▁bothered	-5579
▁satisfying	-5580
▁technology	-5581
▁suspenseful	-5582
▁contemporary	-5583
sl	-5584
avy	-5585
umber	-5586
▁chosen	-5587
▁favorites	-5588
▁excitement	-5589
):	-5590
VE	-5591
▁MST	-5592
produ	-5593
▁Does	-5594
▁heck	-5595
▁till	-5596
▁trib	-5597
▁Wilson	-5598
▁14	-5599
iled	-5600
▁Whe	-5601
▁Hope	-5602
▁THAT	-5603
▁walks	-5604
▁Holmes	-5605
▁Joseph	-5606
▁source	-5607
▁Russell	-5608
▁freedom	-5609
▁renting	-5610
▁Broadway	-5611
▁captures	-5612
▁unfortunate	-5613
hens	-5614
▁Dian	-5615
▁rend	-5616
▁establ	-5617
▁suffering	-5618
oes	-5619
cker	-5620
erie	-5621
long	-5622
ners	-5623
udic	-5624
▁gig	-5625
▁Cast	-5626
▁learns	-5627
▁Actually	-5628
▁propaganda	-5629
▁camer	-5630
▁Watching	-5631
▁visually	-5632
▁performed	-5633
▁Bog	-5634
▁1970	-5635
▁toler	-5636
▁Dennis	-5637
▁losing	-5638
▁praise	-5639
▁transp	-5640
eanwhile	-5641
▁Brothers	-5642
ENT	-5643
▁Are	-5644
▁1980	-5645
▁pregn	-5646
▁rough	-5647
▁unfor	-5648
▁multiple	-5649
ume	-5650
ston	-5651
▁Tod	-5652
▁semi	-5653
▁disag	-5654
▁pursu	-5655
▁erotic	-5656
▁latest	-5657
▁suffers	-5658
▁Anderson	-5659
▁sympathy	-5660
▁Up	-5661
Just	-5662
▁Gener	-5663
outhern	-5664
▁blonde	-5665
▁sports	-5666
▁frankly	-5667
▁spoilers	-5668
▁training	-5669
▁theatrical	-5670
ynam	-5671
▁Eve	-5672
▁batt	-5673
▁core	-5674
▁shut	-5675
▁rules	-5676
▁matters	-5677
▁featured	-5678
▁encounter	-5679
3.	-5680
!),	-5681
mal	-5682
▁Dog	-5683
▁MOV	-5684
▁Rac	-5685
▁tap	-5686
▁lower	-5687
Although	-5688
▁Francis	-5689
▁reflect	-5690
▁complain	-5691
▁religion	-5692
▁appropriate	-5693
ils	-5694
onel	-5695
otion	-5696
range	-5697
▁Bern	-5698
▁Evil	-5699
▁Yeah	-5700
▁drop	-5701
▁harm	-5702
▁false	-5703
▁flesh	-5704
▁plans	-5705
▁reput	-5706
▁scale	-5707
▁center	-5708
▁factor	-5709
▁touches	-5710
▁unconvin	-5711
▁surprises	-5712
Ste	-5713
ola	-5714
fire	-5715
ulci	-5716
▁USA	-5717
▁flow	-5718
▁abuse	-5719
▁rival	-5720
▁borrow	-5721
▁commit	-5722
▁crying	-5723
▁guilty	-5724
▁landsc	-5725
▁Canadian	-5726
aming	-5727
▁Child	-5728
▁Roger	-5729
▁chose	-5730
▁dinos	-5731
▁cutting	-5732
▁remotely	-5733
▁offensive	-5734
ilton	-5735
▁cris	-5736
▁Count	-5737
▁crash	-5738
ression	-5739
▁psycho	-5740
▁Roberts	-5741
▁outrage	-5742
▁convince	-5743
rie	-5744
umm	-5745
▁Sur	-5746
▁rot	-5747
ilogy	-5748
▁alco	-5749
▁mask	-5750
▁Three	-5751
▁ideal	-5752
▁vague	-5753
▁Edward	-5754
▁Murphy	-5755
▁admire	-5756
▁handled	-5757
▁obsessed	-5758
▁committed	-5759
▁practically	-5760
vy	-5761
ait	-5762
▁Jac	-5763
▁atro	-5764
▁link	-5765
▁rise	-5766
▁graph	-5767
▁degree	-5768
▁largely	-5769
▁Eastwood	-5770
▁unlikely	-5771
▁virtually	-5772
▁interaction	-5773
iat	-5774
▁NE	-5775
cula	-5776
▁flo	-5777
▁Kill	-5778
▁Rick	-5779
▁farm	-5780
▁skip	-5781
▁stom	-5782
▁inner	-5783
▁spark	-5784
▁Nichol	-5785
▁surface	-5786
▁Saturday	-5787
▁category	-5788
▁16	-5789
▁ALL	-5790
▁jail	-5791
▁pile	-5792
ighter	-5793
▁ludic	-5794
▁paced	-5795
▁Captain	-5796
▁Vietnam	-5797
▁besides	-5798
▁California	-5799
▁previously	-5800
EE	-5801
▁Bu	-5802
▁Ra	-5803
▁abr	-5804
▁mir	-5805
oster	-5806
▁Much	-5807
▁fare	-5808
▁wear	-5809
▁poign	-5810
▁Parker	-5811
▁holding	-5812
▁LA	-5813
rant	-5814
▁Sid	-5815
arning	-5816
▁minds	-5817
▁betray	-5818
▁Patrick	-5819
▁costume	-5820
▁prostit	-5821
▁segment	-5822
▁Especially	-5823
udes	-5824
▁Rain	-5825
▁fish	-5826
▁neat	-5827
▁bitter	-5828
▁collect	-5829
▁wedding	-5830
▁melodrama	-5831
▁continuity	-5832
"),	-5833
aze	-5834
olen	-5835
▁Cas	-5836
▁lie	-5837
craft	-5838
▁Dean	-5839
▁Kore	-5840
▁States	-5841
▁Johnson	-5842
▁movement	-5843
▁profound	-5844
▁forgettable	-5845
▁accidentally	-5846
▁supernatural	-5847
▁Ob	-5848
▁Sal	-5849
▁1950	-5850
▁Full	-5851
▁VERY	-5852
spired	-5853
▁Sadly	-5854
lection	-5855
▁Brooks	-5856
▁Jewish	-5857
▁variety	-5858
including	-5859
▁stereotypical	-5860
rem	-5861
aret	-5862
ship	-5863
world	-5864
▁evol	-5865
ipping	-5866
rehens	-5867
▁dirty	-5868
▁upset	-5869
written	-5870
▁amazed	-5871
▁inevit	-5872
▁Finally	-5873
▁reminis	-5874
ago	-5875
hise	-5876
umbling	-5877
▁Africa	-5878
▁Donald	-5879
▁Channel	-5880
▁incident	-5881
▁required	-5882
▁Halloween	-5883
▁influence	-5884
▁relatively	-5885
▁extraordinary	-5886
▁Ku	-5887
anny	-5888
orig	-5889
▁acqu	-5890
▁United	-5891
▁partic	-5892
▁stayed	-5893
▁covered	-5894
▁sounded	-5895
zo	-5896
pet	-5897
enny	-5898
ethe	-5899
▁cab	-5900
▁cro	-5901
▁Cost	-5902
▁addict	-5903
▁nostal	-5904
▁exagger	-5905
▁reporter	-5906
▁vampires	-5907
▁distribut	-5908
▁execution	-5909
▁sensitive	-5910
Ne	-5911
uty	-5912
zil	-5913
▁Old	-5914
▁Tur	-5915
atives	-5916
enstein	-5917
▁buying	-5918
▁captiv	-5919
▁haunting	-5920
▁structure	-5921
wy	-5922
ION	-5923
▁fu	-5924
▁Off	-5925
▁Rad	-5926
▁San	-5927
▁ded	-5928
▁hen	-5929
▁sche	-5930
taking	-5931
▁expos	-5932
▁stalk	-5933
▁mistakes	-5934
▁scenario	-5935
▁Sometimes	-5936
▁everywhere	-5937
▁0	-5938
▁CH	-5939
▁focused	-5940
▁increas	-5941
▁private	-5942
UR	-5943
ym	-5944
").	-5945
▁Had	-5946
▁ain	-5947
▁Over	-5948
▁trick	-5949
▁wrest	-5950
▁funnier	-5951
▁seasons	-5952
▁prepared	-5953
ba	-5954
sm	-5955
ems	-5956
liver	-5957
loved	-5958
▁jeal	-5959
▁Fulci	-5960
▁India	-5961
▁spite	-5962
▁excess	-5963
▁gentle	-5964
▁initial	-5965
▁section	-5966
▁politics	-5967
▁1.	-5968
hall	-5969
▁Art	-5970
▁Min	-5971
▁swim	-5972
▁pulls	-5973
▁worry	-5974
▁preview	-5975
▁veteran	-5976
▁destroyed	-5977
Ar	-5978
eds	-5979
amie	-5980
chen	-5981
▁sop	-5982
Every	-5983
▁Hoff	-5984
▁Vamp	-5985
▁bore	-5986
▁sorts	-5987
▁arrest	-5988
▁crimin	-5989
▁turkey	-5990
▁depiction	-5991
ety	-5992
▁Bull	-5993
▁Port	-5994
apping	-5995
▁Carol	-5996
▁blown	-5997
▁enemy	-5998
▁enter	-5999
▁simpl	-6000
▁extras	-6001
▁directly	-6002
Cl	-6003
▁Beat	-6004
▁Your	-6005
▁bound	-6006
▁obnox	-6007
▁gritty	-6008
▁choices	-6009
▁hanging	-6010
▁summary	-6011
▁narration	-6012
▁ly	-6013
▁Each	-6014
▁overlook	-6015
▁convinced	-6016
▁interviews	-6017
▁occasional	-6018
▁reputation	-6019
▁conversation	-6020
dim	-6021
▁SO	-6022
▁fix	-6023
enced	-6024
ipped	-6025
▁Take	-6026
▁arch	-6027
▁cust	-6028
▁lift	-6029
▁Brand	-6030
▁polic	-6031
▁deaths	-6032
▁health	-6033
▁confess	-6034
▁stomach	-6035
▁abandoned	-6036
▁statement	-6037
▁Apparently	-6038
▁experiment	-6039
wing	-6040
▁revel	-6041
▁method	-6042
etheless	-6043
▁demonstr	-6044
▁presents	-6045
▁mainstream	-6046
GM	-6047
▁17	-6048
▁Bon	-6049
onest	-6050
▁reun	-6051
▁ruin	-6052
▁tiny	-6053
▁teeth	-6054
▁emphas	-6055
▁focuses	-6056
▁improve	-6057
▁tremend	-6058
▁atrocious	-6059
▁frightening	-6060
▁originality	-6061
IM	-6062
▁Mill	-6063
▁cous	-6064
▁mildly	-6065
▁shorts	-6066
▁calling	-6067
▁concert	-6068
▁contact	-6069
▁service	-6070
▁gruesome	-6071
▁universe	-6072
▁screening	-6073
▁understood	-6074
▁intellectual	-6075
▁uninteresting	-6076
ga	-6077
bour	-6078
hand	-6079
incess	-6080
▁Tarzan	-6081
▁claims	-6082
▁format	-6083
▁suffer	-6084
▁President	-6085
▁listening	-6086
▁department	-6087
aust	-6088
▁Care	-6089
▁Hill	-6090
▁court	-6091
▁repet	-6092
▁Wonder	-6093
▁weapons	-6094
▁downright	-6095
▁unconvincing	-6096
hem	-6097
ito	-6098
orb	-6099
eral	-6100
noon	-6101
ooth	-6102
port	-6103
▁warn	-6104
Anyway	-6105
uclear	-6106
▁Anton	-6107
▁stolen	-6108
▁Through	-6109
▁trapped	-6110
▁accompan	-6111
▁realizes	-6112
---	-6113
hal	-6114
non	-6115
rol	-6116
▁Da	-6117
ella	-6118
eter	-6119
▁ice	-6120
hamed	-6121
plays	-6122
▁Play	-6123
▁task	-6124
▁quirky	-6125
▁serves	-6126
breaking	-6127
▁courage	-6128
▁heavily	-6129
▁imagery	-6130
▁sisters	-6131
vo	-6132
acre	-6133
▁arg	-6134
after	-6135
▁Anna	-6136
▁Sher	-6137
▁yell	-6138
▁crude	-6139
▁uncle	-6140
▁driver	-6141
▁decades	-6142
▁Elizabeth	-6143
▁appreciated	-6144
▁complicated	-6145
▁wid	-6146
▁Lane	-6147
▁Vinc	-6148
arable	-6149
assion	-6150
▁Beaut	-6151
▁encou	-6152
▁deeper	-6153
▁status	-6154
▁Mexican	-6155
▁Without	-6156
▁contest	-6157
je	-6158
gie	-6159
sha	-6160
ashy	-6161
rier	-6162
▁FBI	-6163
▁Mod	-6164
▁Tor	-6165
▁gre	-6166
amous	-6167
▁Swed	-6168
▁hired	-6169
▁kinds	-6170
▁loyal	-6171
▁wound	-6172
▁paying	-6173
▁concent	-6174
Man	-6175
IGHT	-6176
▁unp	-6177
▁Baby	-6178
▁None	-6179
belief	-6180
horror	-6181
▁Friday	-6182
▁device	-6183
▁massive	-6184
▁combined	-6185
▁critical	-6186
▁painting	-6187
▁Otherwise	-6188
fess	-6189
ugos	-6190
▁Ire	-6191
▁Hong	-6192
▁sink	-6193
▁tong	-6194
▁unif	-6195
▁Clark	-6196
▁Julia	-6197
▁campy	-6198
▁timing	-6199
▁warned	-6200
▁contribut	-6201
▁fictional	-6202
Yes	-6203
can	-6204
ids	-6205
kind	-6206
udge	-6207
▁Mil	-6208
umble	-6209
▁Wall	-6210
▁puzz	-6211
▁vast	-6212
anding	-6213
▁antic	-6214
▁chair	-6215
▁prime	-6216
▁spell	-6217
▁placed	-6218
▁changing	-6219
▁according	-6220
▁amazingly	-6221
aude	-6222
▁/>*	-6223
▁ANY	-6224
▁Fer	-6225
▁ske	-6226
▁goofy	-6227
▁lights	-6228
▁haunted	-6229
▁minimal	-6230
▁univers	-6231
▁overwhel	-6232
▁position	-6233
▁struggling	-6234
cons	-6235
elve	-6236
laim	-6237
▁***	-6238
▁Pri	-6239
▁sne	-6240
▁Under	-6241
▁paint	-6242
▁Sunday	-6243
▁cheese	-6244
▁winner	-6245
▁Hoffman	-6246
▁disagree	-6247
▁murderer	-6248
"?	-6249
gon	-6250
hib	-6251
zed	-6252
girl	-6253
▁Camer	-6254
▁Enter	-6255
▁views	-6256
▁Walter	-6257
▁driven	-6258
▁scares	-6259
▁closing	-6260
▁killers	-6261
▁ludicrous	-6262
fun	-6263
▁AL	-6264
▁NY	-6265
From	-6266
case	-6267
pson	-6268
▁ade	-6269
▁WWII	-6270
▁10/10	-6271
▁MOVIE	-6272
▁beach	-6273
▁chuck	-6274
▁closer	-6275
▁raised	-6276
▁offered	-6277
▁weekend	-6278
▁particip	-6279
iano	-6280
▁LOV	-6281
▁unse	-6282
▁colors	-6283
▁facial	-6284
▁succeeds	-6285
▁obnoxious	-6286
Do	-6287
▁Det	-6288
▁Rec	-6289
▁bik	-6290
arden	-6291
eness	-6292
▁isol	-6293
▁China	-6294
▁carried	-6295
▁expressions	-6296
ona	-6297
ses	-6298
▁Dep	-6299
▁Scar	-6300
▁guar	-6301
▁jobs	-6302
▁seek	-6303
▁anime	-6304
▁grave	-6305
▁During	-6306
▁native	-6307
▁comical	-6308
▁contain	-6309
▁greater	-6310
chy	-6311
usty	-6312
▁dom	-6313
osity	-6314
▁Berg	-6315
▁Kane	-6316
▁bird	-6317
▁blah	-6318
▁guard	-6319
▁Direct	-6320
▁passing	-6321
▁homosexual	-6322
imm	-6323
sed	-6324
▁/>4	-6325
▁Jay	-6326
▁via	-6327
▁inha	-6328
▁stays	-6329
▁Mickey	-6330
▁evident	-6331
▁magical	-6332
▁trilogy	-6333
▁explains	-6334
ari	-6335
gia	-6336
ule	-6337
umph	-6338
▁Army	-6339
▁Blue	-6340
▁butt	-6341
▁dogs	-6342
▁fond	-6343
▁nude	-6344
▁wins	-6345
called	-6346
uppets	-6347
▁dynam	-6348
▁lawyer	-6349
▁touched	-6350
▁designed	-6351
▁pregnant	-6352
▁legendary	-6353
IA	-6354
walk	-6355
▁Back	-6356
▁Grand	-6357
▁Cooper	-6358
▁halfway	-6359
▁security	-6360
▁naturally	-6361
dimensional	-6362
▁effectively	-6363
gun	-6364
wyck	-6365
▁mas	-6366
isher	-6367
style	-6368
except	-6369
▁Miller	-6370
▁throws	-6371
▁Dracula	-6372
▁arrives	-6373
▁starred	-6374
utherland	-6375
▁192	-6376
▁Die	-6377
▁McG	-6378
▁Son	-6379
iques	-6380
ombie	-6381
▁Helen	-6382
▁Sarah	-6383
▁ambit	-6384
▁consp	-6385
▁reward	-6386
▁connect	-6387
▁delivery	-6388
▁throwing	-6389
CT	-6390
iday	-6391
rees	-6392
▁Sun	-6393
▁wand	-6394
coming	-6395
▁coinc	-6396
▁dozen	-6397
▁handle	-6398
▁miscast	-6399
▁rolling	-6400
▁faithful	-6401
▁disbelief	-6402
ds	-6403
OOD	-6404
▁Pa	-6405
from	-6406
▁rub	-6407
▁sav	-6408
Watch	-6409
▁Comp	-6410
▁Have	-6411
▁Marg	-6412
▁blat	-6413
▁page	-6414
▁rank	-6415
▁tear	-6416
▁About	-6417
▁divor	-6418
▁intens	-6419
▁criticism	-6420
▁stupidity	-6421
▁description	-6422
▁inspiration	-6423
da	-6424
▁Sk	-6425
ianc	-6426
ibal	-6427
▁Cage	-6428
▁Plan	-6429
antage	-6430
iamond	-6431
▁chief	-6432
▁serve	-6433
▁Doctor	-6434
▁causes	-6435
▁stylish	-6436
▁baseball	-6437
▁distinct	-6438
Le	-6439
hau	-6440
loyd	-6441
ocal	-6442
omer	-6443
▁60'	-6444
plend	-6445
▁Luke	-6446
▁Phill	-6447
▁anger	-6448
▁brave	-6449
▁ignor	-6450
▁liber	-6451
▁ashamed	-6452
▁prevent	-6453
▁drinking	-6454
▁settings	-6455
▁desperately	-6456
..."	-6457
mber	-6458
▁irre	-6459
▁Person	-6460
▁extent	-6461
▁racist	-6462
▁patient	-6463
BS	-6464
▁nu	-6465
ange	-6466
olph	-6467
▁Air	-6468
▁MGM	-6469
▁Ren	-6470
iable	-6471
▁mans	-6472
▁surf	-6473
▁tree	-6474
▁Santa	-6475
▁Susan	-6476
▁basis	-6477
▁elder	-6478
▁indie	-6479
▁integ	-6480
Another	-6481
▁Movies	-6482
▁enjoying	-6483
▁storytelling	-6484
cean	-6485
fest	-6486
▁log	-6487
▁Amaz	-6488
▁Karen	-6489
▁prete	-6490
▁topic	-6491
▁aliens	-6492
▁charge	-6493
▁rights	-6494
▁subsequ	-6495
▁breaking	-6496
▁everyday	-6497
▁mentally	-6498
▁sophistic	-6499
Is	-6500
col	-6501
jud	-6502
▁Ow	-6503
hard	-6504
▁gar	-6505
▁fabul	-6506
▁theory	-6507
▁nuclear	-6508
▁plastic	-6509
▁related	-6510
▁reminiscent	-6511
11	-6512
imin	-6513
lynn	-6514
▁/>(	-6515
▁fet	-6516
adays	-6517
erved	-6518
▁libr	-6519
▁Charl	-6520
▁buddy	-6521
▁strict	-6522
▁answers	-6523
▁ratings	-6524
▁sheriff	-6525
something	-6526
▁examples	-6527
▁revolves	-6528
▁regarding	-6529
▁MU	-6530
list	-6531
nery	-6532
▁Ara	-6533
▁Gun	-6534
▁Inc	-6535
▁Pitt	-6536
▁join	-6537
▁cheer	-6538
▁caring	-6539
▁capital	-6540
▁assistant	-6541
Let	-6542
ada	-6543
ello	-6544
fall	-6545
▁Alt	-6546
▁Ash	-6547
▁End	-6548
▁Nazi	-6549
▁Betty	-6550
▁Italy	-6551
▁Woody	-6552
▁entry	-6553
▁franc	-6554
cellent	-6555
▁Warner	-6556
▁reject	-6557
!!!!!!!!	-6558
▁reveals	-6559
▁guessing	-6560
▁retarded	-6561
▁introduction	-6562
.)<	-6563
mod	-6564
rust	-6565
▁Ast	-6566
▁fil	-6567
penter	-6568
ounding	-6569
▁Argent	-6570
▁Knight	-6571
▁forest	-6572
▁titles	-6573
▁spoiler	-6574
▁comedian	-6575
▁afternoon	-6576
▁significant	-6577
asp	-6578
hob	-6579
iner	-6580
▁Cru	-6581
▁bill	-6582
lected	-6583
▁Later	-6584
▁jungle	-6585
▁mindless	-6586
▁Sutherland	-6587
▁attempting	-6588
▁credibility	-6589
▁embarrassed	-6590
▁exceptional	-6591
▁HA	-6592
▁ton	-6593
▁stunt	-6594
▁awards	-6595
▁heaven	-6596
▁novels	-6597
▁Columbo	-6598
▁graphics	-6599
▁condition	-6600
▁countries	-6601
▁criminals	-6602
▁necessarily	-6603
▁productions	-6604
hh	-6605
ida	-6606
fits	-6607
igned	-6608
oding	-6609
▁kung	-6610
liners	-6611
▁cance	-6612
▁flawed	-6613
▁balance	-6614
▁carries	-6615
▁credible	-6616
▁properly	-6617
▁Australia	-6618
die	-6619
▁Cap	-6620
▁Cry	-6621
stery	-6622
▁Come	-6623
▁dude	-6624
▁thro	-6625
▁aston	-6626
▁backd	-6627
▁enhan	-6628
▁river	-6629
▁Pacino	-6630
▁ignore	-6631
aughters	-6632
▁Bergman	-6633
Who	-6634
ught	-6635
▁(199	-6636
▁lazy	-6637
▁unbe	-6638
▁Music	-6639
▁wanna	-6640
▁shadow	-6641
▁scripts	-6642
▁welcome	-6643
▁cultural	-6644
▁horrific	-6645
▁treasure	-6646
▁underground	-6647
wh	-6648
rig	-6649
sky	-6650
▁cy	-6651
prise	-6652
▁Kurt	-6653
▁Caine	-6654
▁Lloyd	-6655
▁picks	-6656
▁Intern	-6657
▁alright	-6658
▁figures	-6659
▁network	-6660
ibilities	-6661
▁gripping	-6662
▁reference	-6663
▁struggles	-6664
orc	-6665
▁rev	-6666
acted	-6667
ouses	-6668
retty	-6669
▁Reyn	-6670
▁Wind	-6671
▁seve	-6672
▁tune	-6673
antino	-6674
▁Class	-6675
▁Sovie	-6676
▁incor	-6677
▁wears	-6678
▁beloved	-6679
▁wasting	-6680
▁Stanwyck	-6681
▁Catherine	-6682
CK	-6683
low	-6684
beit	-6685
isms	-6686
▁Los	-6687
▁Ret	-6688
▁(200	-6689
ingers	-6690
▁Devil	-6691
forward	-6692
▁Unlike	-6693
▁deadly	-6694
▁letter	-6695
▁racism	-6696
▁mountain	-6697
▁transform	-6698
▁international	-6699
bid	-6700
▁hip	-6701
ronic	-6702
▁Cole	-6703
▁poet	-6704
▁magaz	-6705
ception	-6706
▁execut	-6707
▁lonely	-6708
▁learning	-6709
▁Basically	-6710
▁screenwriter	-6711
aves	-6712
ease	-6713
oles	-6714
asant	-6715
athan	-6716
▁Tommy	-6717
▁metap	-6718
Michael	-6719
▁Philip	-6720
▁parall	-6721
▁stunts	-6722
▁perfection	-6723
ez	-6724
▁Oz	-6725
▁nom	-6726
ioned	-6727
▁Carr	-6728
▁cand	-6729
▁exer	-6730
▁Chuck	-6731
▁sleazy	-6732
▁dislike	-6733
▁helping	-6734
▁poignant	-6735
eed	-6736
▁ul	-6737
rank	-6738
weet	-6739
▁Mom	-6740
▁Wolf	-6741
▁hack	-6742
▁unre	-6743
comedy	-6744
idents	-6745
▁Along	-6746
▁Blair	-6747
▁Grant	-6748
▁tense	-6749
▁Oliver	-6750
▁flight	-6751
▁hooked	-6752
▁escapes	-6753
▁greatly	-6754
▁lovable	-6755
▁Meanwhile	-6756
▁Something	-6757
By	-6758
Des	-6759
TER	-6760
ani	-6761
hett	-6762
▁raw	-6763
story	-6764
▁Karl	-6765
▁Lind	-6766
▁Lore	-6767
▁rule	-6768
▁Grace	-6769
▁Produ	-6770
▁clips	-6771
▁miles	-6772
▁robot	-6773
▁suffe	-6774
▁medical	-6775
▁attacked	-6776
▁thousands	-6777
OP	-6778
▁PL	-6779
onda	-6780
▁Our	-6781
▁Chic	-6782
▁adop	-6783
▁arms	-6784
Christ	-6785
▁Hardy	-6786
▁Laura	-6787
▁Welles	-6788
▁dinner	-6789
▁served	-6790
original	-6791
▁Sinatra	-6792
▁anticip	-6793
▁artists	-6794
▁idiotic	-6795
▁journal	-6796
▁letting	-6797
▁psychiat	-6798
▁sinister	-6799
▁Definitely	-6800
50	-6801
cia	-6802
gypt	-6803
▁Sir	-6804
▁inj	-6805
▁ped	-6806
plete	-6807
▁Mass	-6808
▁Turn	-6809
▁Clint	-6810
▁disgu	-6811
▁urban	-6812
▁drives	-6813
▁purely	-6814
▁resist	-6815
▁confusion	-6816
▁presentation	-6817
aki	-6818
hist	-6819
▁grim	-6820
inging	-6821
▁aired	-6822
▁adding	-6823
▁castle	-6824
▁exists	-6825
▁videos	-6826
▁attacks	-6827
▁boredom	-6828
▁cynical	-6829
▁Seriously	-6830
rett	-6831
rial	-6832
▁Dad	-6833
▁Sav	-6834
▁Lost	-6835
▁argu	-6836
▁mere	-6837
▁phen	-6838
▁Award	-6839
▁fairy	-6840
▁innov	-6841
ishment	-6842
onsider	-6843
▁fabulous	-6844
▁separate	-6845
▁advantage	-6846
▁adventures	-6847
▁sentimental	-6848
▁controversial	-6849
aver	-6850
▁Arm	-6851
ifies	-6852
▁Stud	-6853
▁elev	-6854
▁fulf	-6855
▁shape	-6856
▁vivid	-6857
▁tongue	-6858
▁Besides	-6859
▁replaced	-6860
EAD	-6861
▁:)	-6862
iber	-6863
ingu	-6864
▁90'	-6865
iation	-6866
ogical	-6867
▁cases	-6868
▁sings	-6869
▁School	-6870
▁mature	-6871
▁Someone	-6872
▁immense	-6873
▁sleeping	-6874
▁searching	-6875
▁determined	-6876
▁Ju	-6877
▁Us	-6878
appy	-6879
book	-6880
▁Kar	-6881
▁bon	-6882
▁hes	-6883
▁slo	-6884
actic	-6885
chell	-6886
▁Flor	-6887
▁remo	-6888
ointed	-6889
semble	-6890
▁Krist	-6891
▁Mexico	-6892
gettable	-6893
▁atmospher	-6894
▁innocence	-6895
▁interpretation	-6896
va	-6897
end	-6898
▁Gi	-6899
mate	-6900
umbs	-6901
▁Arn	-6902
▁HBO	-6903
▁alt	-6904
order	-6905
▁sedu	-6906
▁crack	-6907
▁relax	-6908
▁Prince	-6909
▁REALLY	-6910
▁opened	-6911
ographer	-6912
▁Cameron	-6913
▁Kennedy	-6914
▁amongst	-6915
▁princip	-6916
▁useless	-6917
▁wealthy	-6918
▁accepted	-6919
▁assassin	-6920
▁challenge	-6921
Mar	-6922
▁**	-6923
▁BL	-6924
▁PG	-6925
crow	-6926
rich	-6927
stop	-6928
▁MAN	-6929
plots	-6930
utter	-6931
▁Bell	-6932
▁Land	-6933
▁hole	-6934
▁Sorry	-6935
▁Water	-6936
▁ripped	-6937
▁weight	-6938
▁Freeman	-6939
▁imaginative	-6940
ibl	-6941
▁BAD	-6942
▁Lem	-6943
▁vir	-6944
▁Nort	-6945
oration	-6946
▁border	-6947
▁lacked	-6948
▁intensity	-6949
Dav	-6950
den	-6951
▁pa	-6952
kick	-6953
when	-6954
▁Met	-6955
▁Veg	-6956
vably	-6957
▁Fair	-6958
▁Were	-6959
▁mira	-6960
▁pray	-6961
▁risk	-6962
▁Dream	-6963
▁stumb	-6964
▁Burton	-6965
▁illust	-6966
▁ironic	-6967
▁spoken	-6968
▁Reynolds	-6969
▁carrying	-6970
5.	-6971
UL	-6972
ila	-6973
▁asp	-6974
lance	-6975
▁cave	-6976
▁laid	-6977
▁Flynn	-6978
▁Greek	-6979
▁Family	-6980
▁monkey	-6981
▁repeat	-6982
▁tender	-6983
▁Vincent	-6984
▁restaur	-6985
▁consists	-6986
▁national	-6987
▁Obviously	-6988
▁competent	-6989
,'	-6990
Bra	-6991
ELL	-6992
amor	-6993
hest	-6994
itar	-6995
▁Lat	-6996
▁tag	-6997
alley	-6998
vised	-6999
▁Drew	-7000
▁diss	-7001
▁alleg	-7002
▁Freddy	-7003
▁Hunter	-7004
▁portra	-7005
▁shines	-7006
▁splend	-7007
▁convict	-7008
BLE	-7009
▁Mo	-7010
bbed	-7011
dows	-7012
hill	-7013
imum	-7014
wife	-7015
▁Nol	-7016
▁Ven	-7017
▁eth	-7018
▁fac	-7019
▁gal	-7020
cover	-7021
elson	-7022
▁corn	-7023
▁dece	-7024
▁angle	-7025
▁arrog	-7026
▁equal	-7027
▁spook	-7028
▁toile	-7029
▁Walker	-7030
▁horrend	-7031
▁Bollywood	-7032
▁Carpenter	-7033
▁franchise	-7034
?).	-7035
ONE	-7036
ieu	-7037
alph	-7038
orrow	-7039
▁(197	-7040
▁firm	-7041
▁jack	-7042
▁jerk	-7043
riller	-7044
▁Jamie	-7045
▁Marie	-7046
▁bucks	-7047
▁noted	-7048
▁stops	-7049
▁Acting	-7050
▁Matthau	-7051
▁install	-7052
▁overcome	-7053
▁suffered	-7054
▁werewolf	-7055
▁attempted	-7056
▁miserably	-7057
▁technique	-7058
▁Mid	-7059
going	-7060
ugosi	-7061
entric	-7062
▁Egypt	-7063
▁unfold	-7064
▁manager	-7065
▁uninspired	-7066
van	-7067
seud	-7068
▁bow	-7069
mates	-7070
▁(198	-7071
▁nose	-7072
▁nation	-7073
▁Charact	-7074
▁Michelle	-7075
▁SPOILERS	-7076
▁creation	-7077
▁marvelous	-7078
▁meaningful	-7079
▁techniques	-7080
iger	-7081
phan	-7082
▁Wes	-7083
arter	-7084
▁2001	-7085
▁cock	-7086
▁inco	-7087
mitted	-7088
▁jumps	-7089
ification	-7090
▁chilling	-7091
▁explicit	-7092
▁specific	-7093
▁Universal	-7094
▁enjoyment	-7095
▁breathtaking	-7096
▁consequences	-7097
▁uncomfortable	-7098
1/2	-7099
▁beer	-7100
▁boot	-7101
▁pool	-7102
▁sket	-7103
▁enorm	-7104
▁Golden	-7105
▁preach	-7106
▁robber	-7107
▁annoyed	-7108
▁protagonists	-7109
erty	-7110
▁Fro	-7111
eline	-7112
▁Lisa	-7113
▁myth	-7114
▁coach	-7115
▁drags	-7116
▁occup	-7117
▁tempt	-7118
▁Things	-7119
▁Britain	-7120
▁dialogs	-7121
▁stranger	-7122
▁Tarantino	-7123
▁thrilling	-7124
3,	-7125
ype	-7126
iffe	-7127
orses	-7128
▁Curt	-7129
▁Poor	-7130
▁torn	-7131
direct	-7132
▁Nancy	-7133
▁dealt	-7134
▁notch	-7135
▁raise	-7136
iveness	-7137
▁Comedy	-7138
▁chases	-7139
▁cousin	-7140
▁poster	-7141
▁belongs	-7142
▁lessons	-7143
▁vacation	-7144
▁obsession	-7145
AA	-7146
nan	-7147
ogue	-7148
▁Bac	-7149
▁Top	-7150
▁spy	-7151
ellar	-7152
erior	-7153
▁aged	-7154
Robert	-7155
redict	-7156
▁Would	-7157
▁finan	-7158
▁plant	-7159
▁announ	-7160
▁musicals	-7161
▁instantly	-7162
▁sexuality	-7163
▁appearances	-7164
!.	-7165
Con	-7166
allo	-7167
▁Fle	-7168
▁Mit	-7169
▁Net	-7170
▁WOR	-7171
▁mac	-7172
▁scr	-7173
gging	-7174
▁Khan	-7175
▁broke	-7176
▁lying	-7177
▁Soviet	-7178
▁hiding	-7179
▁sevent	-7180
▁Andrews	-7181
▁tribute	-7182
▁Probably	-7183
▁troubled	-7184
▁appearing	-7185
▁performers	-7186
▁surrounding	-7187
Mr	-7188
Good	-7189
quis	-7190
▁gro	-7191
agine	-7192
▁Home	-7193
▁Oliv	-7194
▁True	-7195
▁tied	-7196
......	-7197
▁stiff	-7198
▁ultra	-7199
▁access	-7200
▁deliber	-7201
▁official	-7202
▁connected	-7203
▁successfully	-7204
▁personalities	-7205
kel	-7206
too	-7207
Jack	-7208
▁alb	-7209
▁pad	-7210
▁eager	-7211
▁heist	-7212
▁saves	-7213
▁fallen	-7214
▁Connery	-7215
▁concerns	-7216
▁contract	-7217
▁friendly	-7218
▁frequently	-7219
▁neighborhood	-7220
rity	-7221
othic	-7222
woman	-7223
▁dare	-7224
▁hipp	-7225
▁hung	-7226
▁Bobby	-7227
▁Satan	-7228
▁adequ	-7229
▁proof	-7230
▁pseud	-7231
▁solve	-7232
▁dramas	-7233
▁mechan	-7234
▁profession	-7235
▁atmospheric	-7236
LD	-7237
OD	-7238
ANT	-7239
▁LI	-7240
▁Cus	-7241
▁Hud	-7242
▁jew	-7243
impse	-7244
place	-7245
▁Ball	-7246
▁Burt	-7247
▁Cind	-7248
▁vent	-7249
ifting	-7250
▁Rachel	-7251
▁glimpse	-7252
▁identify	-7253
▁broadcast	-7254
▁nightmare	-7255
thew	-7256
▁Sol	-7257
▁Gill	-7258
▁Lion	-7259
▁dign	-7260
▁Alien	-7261
▁Sally	-7262
▁autom	-7263
▁devil	-7264
onestly	-7265
▁Virgin	-7266
▁Jessica	-7267
▁closely	-7268
▁crafted	-7269
▁notable	-7270
▁nowadays	-7271
▁happiness	-7272
▁intention	-7273
ggy	-7274
▁45	-7275
▁AT	-7276
▁vi	-7277
Will	-7278
cket	-7279
▁10,	-7280
▁dump	-7281
▁neck	-7282
▁femin	-7283
▁oblig	-7284
▁traum	-7285
▁corpor	-7286
▁virgin	-7287
▁develops	-7288
▁millions	-7289
▁spending	-7290
▁suggests	-7291
▁essential	-7292
▁ourselves	-7293
US	-7294
mit	-7295
isha	-7296
rink	-7297
udos	-7298
▁Has	-7299
▁ecc	-7300
▁rain	-7301
rified	-7302
series	-7303
▁caric	-7304
▁sends	-7305
▁trial	-7306
▁upper	-7307
▁destro	-7308
▁smooth	-7309
▁struck	-7310
▁surviv	-7311
▁seeking	-7312
▁ensemble	-7313
▁hundreds	-7314
▁superfic	-7315
▁curiosity	-7316
▁acceptable	-7317
▁outrageous	-7318
ams	-7319
▁GRE	-7320
▁Rep	-7321
▁sky	-7322
▁Such	-7323
▁meat	-7324
▁metal	-7325
▁nurse	-7326
▁steps	-7327
▁cameos	-7328
▁Germans	-7329
▁dragged	-7330
▁thousand	-7331
▁kidnapped	-7332
▁spiritual	-7333
▁physically	-7334
Tom	-7335
obb	-7336
obi	-7337
why	-7338
rase	-7339
atisf	-7340
lover	-7341
stone	-7342
▁hill	-7343
▁legs	-7344
▁fianc	-7345
▁Lugosi	-7346
▁Powell	-7347
▁afford	-7348
▁switch	-7349
▁stealing	-7350
▁westerns	-7351
▁unforgettable	-7352
5,	-7353
wl	-7354
oked	-7355
asion	-7356
▁Shan	-7357
inally	-7358
emption	-7359
▁Arnold	-7360
▁Killer	-7361
▁conven	-7362
▁mirror	-7363
atchable	-7364
▁beating	-7365
▁madness	-7366
▁studios	-7367
▁melodramatic	-7368
3)	-7369
30	-7370
lee	-7371
▁Fu	-7372
▁Tri	-7373
▁Tru	-7374
icing	-7375
▁Cont	-7376
▁Soon	-7377
▁abys	-7378
▁quote	-7379
▁shark	-7380
▁Franco	-7381
▁Living	-7382
▁dramat	-7383
▁exchan	-7384
▁chasing	-7385
▁colorful	-7386
▁hopefully	-7387
OK	-7388
▁24	-7389
▁Ric	-7390
iders	-7391
▁Bros	-7392
▁cann	-7393
▁daily	-7394
▁grows	-7395
▁hoped	-7396
▁newsp	-7397
▁incons	-7398
▁command	-7399
▁pointed	-7400
▁exercise	-7401
▁daughters	-7402
▁president	-7403
▁Personally	-7404
▁scientists	-7405
Unfortunately	-7406
ya	-7407
oiler	-7408
osing	-7409
plane	-7410
▁fest	-7411
iments	-7412
▁maker	-7413
▁homage	-7414
▁lesser	-7415
▁talked	-7416
▁thirty	-7417
▁achieved	-7418
▁checking	-7419
▁darkness	-7420
▁sexually	-7421
▁appalling	-7422
▁initially	-7423
▁thrillers	-7424
CE	-7425
jo	-7426
aws	-7427
▁Alf	-7428
▁wra	-7429
watch	-7430
▁Give	-7431
▁mont	-7432
▁irony	-7433
▁spots	-7434
▁trite	-7435
▁Thanks	-7436
▁cringe	-7437
▁infect	-7438
▁essence	-7439
▁transfer	-7440
▁endearing	-7441
sho	-7442
via	-7443
▁DE	-7444
▁MA	-7445
utch	-7446
▁rat	-7447
▁Page	-7448
▁moon	-7449
▁size	-7450
▁Ralph	-7451
▁faced	-7452
▁inacc	-7453
▁kicks	-7454
▁suits	-7455
▁Police	-7456
▁ghosts	-7457
▁releas	-7458
▁states	-7459
ological	-7460
▁dubbing	-7461
▁charisma	-7462
▁killings	-7463
▁incoherent	-7464
Tw	-7465
ader	-7466
airs	-7467
aste	-7468
igan	-7469
rics	-7470
▁Ten	-7471
▁Dave	-7472
▁Greg	-7473
▁nuts	-7474
erella	-7475
▁cried	-7476
▁patri	-7477
▁Heaven	-7478
▁Nelson	-7479
▁abrupt	-7480
▁attend	-7481
▁packed	-7482
▁weakness	-7483
rep	-7484
ipes	-7485
▁Str	-7486
▁row	-7487
▁shy	-7488
▁tro	-7489
ushes	-7490
▁1930	-7491
▁Bran	-7492
▁anal	-7493
▁guts	-7494
ructed	-7495
▁clown	-7496
▁eerie	-7497
▁Laurel	-7498
▁beings	-7499
▁dollar	-7500
▁editor	-7501
▁elabor	-7502
▁fourth	-7503
▁toilet	-7504
▁weapon	-7505
▁battles	-7506
▁breasts	-7507
▁library	-7508
▁refuses	-7509
▁Mitchell	-7510
▁strangely	-7511
▁repetitive	-7512
▁established	-7513
▁importantly	-7514
gr	-7515
ux	-7516
pes	-7517
▁3.	-7518
agan	-7519
gain	-7520
ogan	-7521
▁Ice	-7522
▁Meg	-7523
▁rhy	-7524
Where	-7525
▁Four	-7526
▁Holly	-7527
▁easier	-7528
▁larger	-7529
▁rushed	-7530
ertainly	-7531
▁Superman	-7532
▁backdrop	-7533
▁internet	-7534
?),	-7535
cut	-7536
▁Hy	-7537
aurs	-7538
only	-7539
pses	-7540
▁lur	-7541
▁tow	-7542
▁Next	-7543
▁hype	-7544
▁ruth	-7545
▁toss	-7546
▁wann	-7547
resses	-7548
▁Check	-7549
▁blows	-7550
▁brand	-7551
▁react	-7552
▁opposed	-7553
▁subplot	-7554
▁Jonathan	-7555
▁striking	-7556
▁attraction	-7557
▁commercials	-7558
▁competition	-7559
AND	-7560
agh	-7561
hey	-7562
rum	-7563
▁2,	-7564
corn	-7565
▁Cur	-7566
▁Ree	-7567
▁tax	-7568
water	-7569
▁decl	-7570
iently	-7571
▁ambig	-7572
▁gradu	-7573
▁threw	-7574
▁Rogers	-7575
▁gather	-7576
▁suburb	-7577
▁creators	-7578
▁incompet	-7579
▁requires	-7580
▁horrendous	-7581
ads	-7582
haw	-7583
Char	-7584
athy	-7585
onse	-7586
umin	-7587
unky	-7588
▁Saw	-7589
▁Tem	-7590
eston	-7591
uloid	-7592
▁Bart	-7593
▁farce	-7594
▁limit	-7595
▁Sidney	-7596
▁finger	-7597
▁riding	-7598
▁tricks	-7599
Director	-7600
ographic	-7601
▁Chicago	-7602
▁handful	-7603
▁wondered	-7604
▁cardboard	-7605
▁carefully	-7606
▁repeatedly	-7607
ata	-7608
new	-7609
nic	-7610
▁Di	-7611
avor	-7612
esty	-7613
....<	-7614
Maybe	-7615
video	-7616
▁Rand	-7617
▁Stoo	-7618
oilers	-7619
▁Heart	-7620
▁knife	-7621
▁loser	-7622
▁thick	-7623
▁unple	-7624
▁shoots	-7625
--------	-7626
existent	-7627
▁General	-7628
▁engaged	-7629
▁phenomen	-7630
▁relevant	-7631
▁eccentric	-7632
▁nonetheless	-7633
80	-7634
ado	-7635
Paul	-7636
oose	-7637
▁Sky	-7638
▁Rome	-7639
▁glob	-7640
school	-7641
weight	-7642
▁illeg	-7643
▁Father	-7644
▁Oscars	-7645
▁Pretty	-7646
▁thread	-7647
▁wishes	-7648
▁adapted	-7649
▁selfish	-7650
▁selling	-7651
▁National	-7652
▁hysterical	-7653
7.	-7654
bal	-7655
uke	-7656
▁'7	-7657
lett	-7658
▁Reg	-7659
happy	-7660
ourne	-7661
▁Ever	-7662
▁sand	-7663
▁sque	-7664
▁citiz	-7665
▁fears	-7666
▁queen	-7667
▁Church	-7668
▁engine	-7669
▁territ	-7670
▁Indians	-7671
▁thrills	-7672
▁definite	-7673
▁mistaken	-7674
▁timeless	-7675
▁expensive	-7676
▁motivation	-7677
▁tremendous	-7678
▁increasingly	-7679
6.	-7680
ato	-7681
▁mes	-7682
▁Conn	-7683
▁bott	-7684
▁grad	-7685
▁imit	-7686
▁nail	-7687
▁Griff	-7688
▁Power	-7689
▁candy	-7690
▁guide	-7691
▁dancer	-7692
▁presum	-7693
▁spread	-7694
▁stated	-7695
▁happily	-7696
▁stretch	-7697
▁explosions	-7698
▁intentions	-7699
▁pleasantly	-7700
▁restaurant	-7701
▁sophisticated	-7702
Sh	-7703
yc	-7704
▁;	-7705
aka	-7706
pse	-7707
kish	-7708
nels	-7709
▁50'	-7710
▁Cub	-7711
!!!!!	-7712
▁Fire	-7713
▁gain	-7714
▁mock	-7715
▁activ	-7716
▁chest	-7717
▁merit	-7718
▁shout	-7719
jointed	-7720
▁Highly	-7721
▁Leslie	-7722
▁locked	-7723
▁Leonard	-7724
▁Science	-7725
▁comfort	-7726
▁holiday	-7727
▁portrait	-7728
▁attracted	-7729
▁reasonably	-7730
9.	-7731
▁Az	-7732
mann	-7733
▁Bry	-7734
▁Dri	-7735
▁Pot	-7736
▁Res	-7737
bbing	-7738
ierce	-7739
▁Josh	-7740
▁busy	-7741
▁chap	-7742
▁hood	-7743
handed	-7744
movies	-7745
▁Andre	-7746
▁Emily	-7747
▁Secret	-7748
▁beaten	-7749
▁cowboy	-7750
▁horses	-7751
▁string	-7752
▁vulner	-7753
▁Picture	-7754
▁accused	-7755
▁dropped	-7756
▁pleased	-7757
▁spoiled	-7758
▁ambitious	-7759
▁complaint	-7760
▁brilliance	-7761
ERS	-7762
Per	-7763
Like	-7764
▁Owen	-7765
▁eleg	-7766
entist	-7767
▁Witch	-7768
▁Korean	-7769
▁Russia	-7770
▁shower	-7771
▁wonders	-7772
▁basement	-7773
▁reactions	-7774
▁documentaries	-7775
Ad	-7776
cr	-7777
oms	-7778
oni	-7779
ora	-7780
icop	-7781
uinn	-7782
▁Ken	-7783
▁Low	-7784
▁Penn	-7785
▁folk	-7786
▁tons	-7787
usions	-7788
▁Buddy	-7789
▁Think	-7790
▁etern	-7791
▁immig	-7792
▁motor	-7793
veloped	-7794
▁Hudson	-7795
▁idiots	-7796
▁Angeles	-7797
▁ignored	-7798
▁watches	-7799
▁electric	-7800
▁precious	-7801
▁splendid	-7802
▁Frankenstein	-7803
OME	-7804
oln	-7805
▁fi	-7806
▁foo	-7807
eremy	-7808
inent	-7809
iracy	-7810
▁1960	-7811
▁wack	-7812
minded	-7813
▁Baker	-7814
▁Fonda	-7815
▁gotta	-7816
▁stood	-7817
▁Altman	-7818
▁Friend	-7819
▁elsewhere	-7820
▁insulting	-7821
▁photographer	-7822
hi	-7823
gle	-7824
▁SC	-7825
erek	-7826
heim	-7827
itle	-7828
▁1/2	-7829
ilted	-7830
riter	-7831
▁goal	-7832
▁push	-7833
▁reli	-7834
▁webs	-7835
isions	-7836
▁Could	-7837
▁guilt	-7838
▁piano	-7839
▁wreck	-7840
ielberg	-7841
▁Cusack	-7842
▁Sandra	-7843
▁horrid	-7844
▁briefly	-7845
▁realise	-7846
mentioned	-7847
▁response	-7848
▁tortured	-7849
▁remaining	-7850
dog	-7851
iar	-7852
omy	-7853
ulk	-7854
...)	-7855
ATCH	-7856
cend	-7857
rael	-7858
▁oil	-7859
▁Book	-7860
▁Mira	-7861
▁depe	-7862
▁embr	-7863
▁hunt	-7864
▁bleak	-7865
isation	-7866
▁Hopper	-7867
▁drivel	-7868
▁captain	-7869
▁explore	-7870
▁jealous	-7871
▁disappear	-7872
▁landscape	-7873
▁accomplished	-7874
▁5.	-7875
also	-7876
owed	-7877
▁Abs	-7878
▁Dal	-7879
▁Gen	-7880
▁Kra	-7881
ormal	-7882
▁Stra	-7883
▁feed	-7884
▁Mitch	-7885
▁cared	-7886
▁obser	-7887
▁slick	-7888
▁virus	-7889
▁Austen	-7890
▁Willis	-7891
▁plague	-7892
▁wicked	-7893
▁elderly	-7894
▁mansion	-7895
▁flawless	-7896
▁messages	-7897
▁segments	-7898
▁typically	-7899
▁unpleasant	-7900
▁destruction	-7901
▁individuals	-7902
▁superficial	-7903
▁photographed	-7904
Gra	-7905
abs	-7906
▁21	-7907
▁Aw	-7908
Here	-7909
eric	-7910
hour	-7911
ivan	-7912
ptic	-7913
▁Ing	-7914
▁nut	-7915
▁reb	-7916
▁myst	-7917
ifying	-7918
▁raped	-7919
▁Almost	-7920
▁	-7921
e	-7922
t	-7923
a	-7924
o	-7925
i	-7926
s	-7927
n	-7928
r	-7929
h	-7930
l	-7931
d	-7932
u	-7933
c	-7934
m	-7935
f	-7936
y	-7937
g	-7938
w	-7939
b	-7940
p	-7941
.	-7942
v	-7943
,	-7944
k	-7945
I	-7946
'	-7947
T	-7948
/	-7949
>	-7950
<	-7951
"	-7952
-	-7953
A	-7954
S	-7955
B	-7956
x	-7957
M	-7958
H	-7959
D	-7960
C	-7961
j	-7962
)	-7963
W	-7964
(	-7965
E	-7966
R	-7967
L	-7968
O	-7969
!	-7970
N	-7971
P	-7972
F	-7973
G	-7974
J	-7975
z	-7976
0	-7977
q	-7978
1	-7979
?	-7980
V	-7981
K	-7982
Y	-7983
:	-7984
9	-7985
U	-7986
2	-7987
*	-7988
;	-7989
3	-7990
5	-7991
8	-7992
4	-7993
7	-7994
&	-7995
6	-7996
