<unk>	0
<s>	0
</s>	0
▁t	-0
▁a	-1
he	-2
in	-3
re	-4
▁s	-5
▁the	-6
▁o	-7
▁w	-8
▁b	-9
it	-10
er	-11
▁f	-12
▁c	-13
▁I	-14
nd	-15
is	-16
at	-17
▁m	-18
ou	-19
▁p	-20
▁th	-21
as	-22
or	-23
ing	-24
▁d	-25
▁and	-26
ed	-27
es	-28
▁to	-29
▁h	-30
▁l	-31
on	-32
ll	-33
ve	-34
an	-35
▁g	-36
▁it	-37
ar	-38
ic	-39
en	-40
▁of	-41
▁n	-42
ut	-43
ot	-44
▁is	-45
al	-46
▁in	-47
om	-48
▁T	-49
et	-50
od	-51
br	-52
▁/	-53
us	-54
▁/>	-55
le	-56
▁e	-57
▁ha	-58
▁on	-59
▁re	-60
▁for	-61
ly	-62
▁y	-63
▁this	-64
ver	-65
▁be	-66
ast	-67
ke	-68
ac	-69
se	-70
▁that	-71
▁you	-72
▁st	-73
gh	-74
uc	-75
ow	-76
▁pr	-77
ith	-78
ood	-79
▁with	-80
▁my	-81
▁The	-82
la	-83
ld	-84
ri	-85
▁but	-86
all	-87
▁li	-88
▁have	-89
▁co	-90
ay	-91
ff	-92
▁not	-93
me	-94
▁are	-95
ee	-96
▁was	-97
id	-98
her	-99
▁A	-100
ter	-101
st	-102
▁or	-103
up	-104
▁lo	-105
ur	-106
ore	-107
ent	-108
▁tast	-109
▁S	-110
▁as	-111
..	-112
▁do	-113
▁wh	-114
▁so	-115
▁we	-116
.<	-117
ra	-118
ack	-119
ill	-120
vor	-121
▁/><	-122
▁like	-123
reat	-124
▁an	-125
ally	-126
ec	-127
ion	-128
ice	-129
ght	-130
ea	-131
th	-132
very	-133
▁fla	-134
▁j	-135
ust	-136
▁they	-137
▁he	-138
▁B	-139
ce	-140
ould	-141
ag	-142
▁M	-143
ir	-144
▁ch	-145
▁them	-146
uct	-147
pp	-148
▁C	-149
▁us	-150
▁can	-151
▁W	-152
un	-153
ad	-154
oduct	-155
▁It	-156
▁flavor	-157
▁me	-158
ch	-159
▁i	-160
▁al	-161
▁good	-162
ry	-163
ome	-164
▁(	-165
▁at	-166
▁Th	-167
ul	-168
▁fr	-169
▁these	-170
▁product	-171
il	-172
ok	-173
red	-174
ffee	-175
▁taste	-176
ol	-177
ate	-178
ble	-179
am	-180
▁ex	-181
▁all	-182
▁r	-183
ink	-184
▁one	-185
ak	-186
ive	-187
▁coffee	-188
out	-189
▁just	-190
qu	-191
▁k	-192
ant	-193
hen	-194
oc	-195
est	-196
ess	-197
▁very	-198
▁ne	-199
▁great	-200
ite	-201
ain	-202
um	-203
ick	-204
▁This	-205
▁from	-206
▁food	-207
el	-208
▁sh	-209
▁con	-210
▁get	-211
▁P	-212
ther	-213
op	-214
▁H	-215
▁su	-216
ind	-217
▁has	-218
im	-219
▁N	-220
ake	-221
▁more	-222
az	-223
▁would	-224
▁sa	-225
▁tea	-226
▁G	-227
▁am	-228
▁had	-229
▁out	-230
▁ab	-231
▁O	-232
▁other	-233
▁will	-234
▁1	-235
▁F	-236
▁com	-237
▁than	-238
ies	-239
ie	-240
ough	-241
▁bu	-242
▁any	-243
▁di	-244
ound	-245
tle	-246
nt	-247
▁eat	-248
▁some	-249
▁when	-250
▁love	-251
ong	-252
▁ad	-253
▁up	-254
uch	-255
▁en	-256
ine	-257
ip	-258
one	-259
▁if	-260
we	-261
▁"	-262
▁pack	-263
azon	-264
res	-265
▁dog	-266
so	-267
ven	-268
ers	-269
▁buy	-270
▁qu	-271
▁wor	-272
ars	-273
▁D	-274
▁se	-275
▁sp	-276
▁about	-277
ich	-278
▁v	-279
▁dr	-280
ect	-281
▁rec	-282
ime	-283
ried	-284
ab	-285
art	-286
▁really	-287
aus	-288
▁bo	-289
▁-	-290
ous	-291
ost	-292
▁L	-293
▁only	-294
▁bec	-295
▁your	-296
▁too	-297
ree	-298
ause	-299
▁che	-300
▁ord	-301
▁don	-302
fter	-303
▁lit	-304
▁no	-305
▁go	-306
▁mi	-307
▁much	-308
and	-309
ard	-310
▁te	-311
▁My	-312
▁Am	-313
▁bag	-314
▁E	-315
...	-316
ere	-317
!!	-318
▁add	-319
▁time	-320
▁try	-321
weet	-322
▁drink	-323
ought	-324
▁They	-325
▁were	-326
▁use	-327
▁ag	-328
▁little	-329
▁2	-330
▁pre	-331
▁because	-332
our	-333
ved	-334
▁price	-335
▁find	-336
▁dis	-337
▁bet	-338
ves	-339
tu	-340
▁Amazon	-341
ef	-342
ap	-343
▁did	-344
ater	-345
▁been	-346
ays	-347
ond	-348
▁exp	-349
▁tried	-350
▁sweet	-351
▁over	-352
▁sm	-353
ig	-354
ving	-355
▁comp	-356
ge	-357
▁does	-358
▁We	-359
ious	-360
▁ar	-361
▁also	-362
hing	-363
▁R	-364
▁see	-365
▁bit	-366
▁who	-367
▁by	-368
▁per	-369
os	-370
▁make	-371
ight	-372
▁which	-373
if	-374
▁after	-375
int	-376
▁K	-377
▁pro	-378
gar	-379
ks	-380
▁what	-381
▁better	-382
▁store	-383
▁best	-384
▁even	-385
▁gr	-386
▁pe	-387
ue	-388
▁cup	-389
ocol	-390
alth	-391
▁treat	-392
▁bre	-393
▁fe	-394
▁there	-395
ose	-396
▁cook	-397
rand	-398
▁del	-399
ase	-400
▁box	-401
▁fa	-402
▁int	-403
▁un	-404
▁bot	-405
▁well	-406
▁ye	-407
▁cont	-408
▁sal	-409
ist	-410
▁she	-411
irst	-412
any	-413
mend	-414
ity	-415
▁ac	-416
ocolate	-417
ach	-418
▁cat	-419
orn	-420
▁cr	-421
▁every	-422
oy	-423
ty	-424
ommend	-425
ep	-426
▁water	-427
▁her	-428
▁kn	-429
ade	-430
▁pur	-431
em	-432
ful	-433
own	-434
ort	-435
iz	-436
igh	-437
▁mak	-438
act	-439
▁recommend	-440
▁health	-441
▁their	-442
▁look	-443
▁want	-444
▁mix	-445
ient	-446
ation	-447
▁brand	-448
ber	-449
▁pl	-450
▁tw	-451
▁ca	-452
▁Y	-453
▁packag	-454
pt	-455
▁order	-456
▁could	-457
▁sugar	-458
▁diff	-459
▁think	-460
▁first	-461
uff	-462
▁again	-463
▁now	-464
▁chocolate	-465
▁purch	-466
▁found	-467
▁sn	-468
▁3	-469
▁used	-470
able	-471
ark	-472
ide	-473
pr	-474
omet	-475
▁If	-476
vie	-477
▁These	-478
ily	-479
▁V	-480
00	-481
joy	-482
rong	-483
ered	-484
▁our	-485
▁know	-486
▁how	-487
▁off	-488
gan	-489
▁give	-490
view	-491
▁thing	-492
ish	-493
▁favor	-494
ince	-495
ount	-496
▁need	-497
ile	-498
▁ke	-499
▁bought	-500
▁differe	-501
ular	-502
▁review	-503
▁made	-504
▁way	-505
▁somet	-506
▁Ch	-507
bs	-508
ens	-509
▁J	-510
▁then	-511
).	-512
▁enjoy	-513
▁two	-514
ms	-515
▁day	-516
▁high	-517
▁ri	-518
les	-519
▁eas	-520
▁snack	-521
ting	-522
ull	-523
ased	-524
▁got	-525
redient	-526
▁ing	-527
▁long	-528
▁small	-529
▁br	-530
ery	-531
▁most	-532
▁sup	-533
▁car	-534
ever	-535
ips	-536
icious	-537
▁nice	-538
▁ingredient	-539
▁tr	-540
▁tastes	-541
▁lot	-542
The	-543
▁thr	-544
ple	-545
fect	-546
▁still	-547
▁free	-548
ans	-549
ated	-550
ment	-551
fore	-552
end	-553
▁aw	-554
▁favorite	-555
▁keep	-556
▁im	-557
ure	-558
▁dec	-559
▁work	-560
ition	-561
▁into	-562
▁5	-563
ipp	-564
▁say	-565
▁many	-566
▁St	-567
▁flavors	-568
▁strong	-569
ilk	-570
▁delicious	-571
▁stuff	-572
▁few	-573
▁op	-574
▁ser	-575
co	-576
be	-577
▁reg	-578
▁&	-579
▁before	-580
▁gra	-581
ture	-582
mell	-583
▁since	-584
▁But	-585
▁$	-586
▁something	-587
▁ro	-588
ality	-589
oth	-590
ways	-591
▁bl	-592
▁4	-593
ganic	-594
▁hot	-595
▁cal	-596
oint	-597
eel	-598
▁dogs	-599
thing	-600
atur	-601
▁never	-602
lf	-603
unch	-604
other	-605
▁smell	-606
▁years	-607
▁ve	-608
reen	-609
ial	-610
▁app	-611
▁perfect	-612
▁happ	-613
▁loc	-614
▁U	-615
▁mon	-616
▁without	-617
▁treats	-618
resh	-619
--	-620
ave	-621
ai	-622
▁old	-623
▁different	-624
oney	-625
▁same	-626
▁put	-627
▁right	-628
here	-629
are	-630
▁less	-631
gg	-632
▁always	-633
▁hard	-634
▁nut	-635
ness	-636
ize	-637
▁back	-638
▁didn	-639
▁alm	-640
ass	-641
▁So	-642
app	-643
efin	-644
▁makes	-645
▁may	-646
▁enough	-647
erg	-648
▁loves	-649
▁Wh	-650
▁quality	-651
▁month	-652
ium	-653
▁le	-654
ason	-655
ute	-656
ww	-657
▁ingredients	-658
▁milk	-659
ari	-660
▁gl	-661
▁fresh	-662
▁cons	-663
▁doesn	-664
▁de	-665
▁healthy	-666
ned	-667
rig	-668
▁chips	-669
ream	-670
▁pret	-671
ct	-672
▁feel	-673
▁contain	-674
▁bad	-675
ult	-676
▁ever	-677
▁shipp	-678
▁down	-679
uce	-680
▁ordered	-681
uit	-682
▁cl	-683
▁regular	-684
▁sure	-685
▁calor	-686
▁min	-687
efinite	-688
▁his	-689
▁last	-690
self	-691
lp	-692
▁products	-693
▁oil	-694
▁proble	-695
▁using	-696
onder	-697
▁chew	-698
icken	-699
▁salt	-700
▁actu	-701
atural	-702
▁eating	-703
▁open	-704
ked	-705
▁low	-706
▁sl	-707
efinitely	-708
▁help	-709
▁here	-710
▁fl	-711
▁far	-712
▁inst	-713
ame	-714
▁part	-715
ud	-716
▁start	-717
cri	-718
▁though	-719
ove	-720
esp	-721
imes	-722
▁ext	-723
▁its	-724
age	-725
▁You	-726
),	-727
▁big	-728
ote	-729
lend	-730
▁real	-731
▁thought	-732
▁buying	-733
▁wonder	-734
wn	-735
ia	-736
ier	-737
▁through	-738
con	-739
▁bags	-740
▁easy	-741
hed	-742
▁while	-743
▁exce	-744
▁those	-745
▁Al	-746
ually	-747
ably	-748
com	-749
▁local	-750
og	-751
aste	-752
▁cookies	-753
▁fri	-754
▁size	-755
!<	-756
▁He	-757
▁pretty	-758
inn	-759
ER	-760
▁6	-761
▁him	-762
▁quick	-763
ople	-764
ption	-765
▁take	-766
▁read	-767
iced	-768
▁looking	-769
▁package	-770
▁definitely	-771
▁On	-772
ins	-773
umm	-774
▁lar	-775
▁lea	-776
▁brew	-777
▁whole	-778
....	-779
▁ple	-780
▁And	-781
▁pot	-782
▁going	-783
▁actually	-784
ets	-785
▁In	-786
▁being	-787
▁should	-788
▁cats	-789
▁pop	-790
ensive	-791
orm	-792
▁Not	-793
▁ra	-794
▁organic	-795
▁tasty	-796
▁wee	-797
▁new	-798
▁av	-799
▁fat	-800
old	-801
▁TH	-802
▁happy	-803
▁butter	-804
▁sim	-805
▁quite	-806
ang	-807
▁inc	-808
▁rece	-809
ock	-810
ored	-811
▁disapp	-812
ress	-813
oo	-814
der	-815
▁cream	-816
ese	-817
ert	-818
ange	-819
yp	-820
ien	-821
▁tex	-822
get	-823
▁ref	-824
▁shipping	-825
▁home	-826
▁res	-827
▁amount	-828
▁When	-829
▁both	-830
alf	-831
ially	-832
ffe	-833
▁tra	-834
▁each	-835
▁sc	-836
▁vari	-837
▁purchase	-838
▁expect	-839
uck	-840
▁another	-841
illa	-842
▁hand	-843
▁da	-844
▁smo	-845
▁calories	-846
und	-847
▁item	-848
▁gu	-849
llent	-850
uten	-851
▁cheap	-852
▁around	-853
▁people	-854
ately	-855
▁tasted	-856
ace	-857
▁anything	-858
▁almost	-859
▁bar	-860
▁diet	-861
▁past	-862
▁full	-863
als	-864
▁worth	-865
▁texture	-866
▁cle	-867
▁sauce	-868
▁kid	-869
otein	-870
ato	-871
▁dry	-872
▁purchased	-873
ions	-874
▁disappoint	-875
anut	-876
▁Great	-877
pl	-878
▁year	-879
ro	-880
▁groc	-881
▁sy	-882
▁wonderful	-883
ise	-884
▁fam	-885
▁kind	-886
▁She	-887
▁cand	-888
▁seem	-889
orning	-890
▁pref	-891
atch	-892
ance	-893
▁esp	-894
▁variet	-895
vers	-896
▁blend	-897
▁bars	-898
▁expensive	-899
▁cere	-900
▁des	-901
▁There	-902
▁fruit	-903
▁stores	-904
▁own	-905
ead	-906
anc	-907
hes	-908
▁trying	-909
▁friend	-910
▁half	-911
▁tasting	-912
xt	-913
▁chicken	-914
▁pick	-915
akes	-916
▁morning	-917
ten	-918
ouse	-919
▁How	-920
astic	-921
opp	-922
▁bitter	-923
▁green	-924
▁pow	-925
▁break	-926
▁Co	-927
▁fin	-928
bably	-929
▁said	-930
ived	-931
▁typ	-932
▁arri	-933
▁getting	-934
anilla	-935
▁cou	-936
vored	-937
▁brands	-938
▁foods	-939
sol	-940
ian	-941
▁natural	-942
iec	-943
cup	-944
▁As	-945
▁won	-946
▁away	-947
▁grocery	-948
▁came	-949
▁bottle	-950
wh	-951
▁reason	-952
urn	-953
▁protein	-954
tt	-955
oon	-956
▁sever	-957
▁sur	-958
ren	-959
▁super	-960
ew	-961
▁several	-962
ative	-963
▁fill	-964
ike	-965
oss	-966
VE	-967
arb	-968
▁things	-969
▁gluten	-970
▁fact	-971
▁cost	-972
▁family	-973
▁come	-974
▁added	-975
▁peanut	-976
▁days	-977
▁probably	-978
ific	-979
▁months	-980
▁might	-981
▁smooth	-982
▁problem	-983
▁feed	-984
af	-985
▁teas	-986
▁rat	-987
▁piec	-988
▁having	-989
▁reviews	-990
Th	-991
▁mo	-992
▁case	-993
product	-994
aila	-995
ives	-996
▁ind	-997
ash	-998
ref	-999
ided	-1000
▁where	-1001
IN	-1002
▁excellent	-1003
▁el	-1004
▁received	-1005
▁imp	-1006
▁usually	-1007
iv	-1008
▁However	-1009
ps	-1010
▁cocon	-1011
▁coconut	-1012
▁sell	-1013
▁cereal	-1014
ither	-1015
ience	-1016
arket	-1017
berry	-1018
▁dark	-1019
ergy	-1020
read	-1021
▁seems	-1022
▁rice	-1023
lor	-1024
)<	-1025
ky	-1026
▁light	-1027
▁company	-1028
▁loved	-1029
ix	-1030
less	-1031
▁end	-1032
ied	-1033
day	-1034
▁LO	-1035
nce	-1036
▁isn	-1037
▁prefer	-1038
▁comes	-1039
ecially	-1040
ical	-1041
▁Or	-1042
ild	-1043
its	-1044
▁money	-1045
▁8	-1046
▁stick	-1047
▁candy	-1048
ices	-1049
ries	-1050
ger	-1051
ailable	-1052
vel	-1053
ft	-1054
▁sub	-1055
ary	-1056
ings	-1057
▁unt	-1058
▁rem	-1059
not	-1060
▁NO	-1061
ib	-1062
corn	-1063
▁making	-1064
tern	-1065
ire	-1066
▁sat	-1067
▁hus	-1068
ener	-1069
ell	-1070
▁flavored	-1071
▁able	-1072
▁12	-1073
▁three	-1074
▁bott	-1075
▁drinking	-1076
aking	-1077
▁cra	-1078
▁sod	-1079
kes	-1080
band	-1081
▁available	-1082
▁list	-1083
▁crunch	-1084
▁until	-1085
▁'	-1086
▁hop	-1087
side	-1088
▁corn	-1089
▁sec	-1090
▁highly	-1091
rup	-1092
RE	-1093
▁run	-1094
ub	-1095
▁large	-1096
ank	-1097
▁husband	-1098
▁form	-1099
isf	-1100
//	-1101
!!!	-1102
▁fine	-1103
▁serving	-1104
▁top	-1105
ised	-1106
▁roast	-1107
▁ones	-1108
▁ju	-1109
pper	-1110
ates	-1111
▁arrived	-1112
▁once	-1113
▁disappointed	-1114
www	-1115
▁deal	-1116
://	-1117
▁For	-1118
▁times	-1119
▁No	-1120
▁absol	-1121
ttp	-1122
▁least	-1123
amazon	-1124
the	-1125
fe	-1126
▁kids	-1127
">	-1128
▁10	-1129
utes	-1130
▁meat	-1131
http	-1132
▁stars	-1133
outh	-1134
▁absolute	-1135
gp	-1136
▁such	-1137
ared	-1138
▁href	-1139
▁surpr	-1140
▁packaging	-1141
▁decided	-1142
▁--	-1143
kin	-1144
▁After	-1145
▁else	-1146
▁und	-1147
▁recip	-1148
AT	-1149
ible	-1150
ently	-1151
aby	-1152
▁satisf	-1153
fast	-1154
▁must	-1155
icy	-1156
▁variety	-1157
▁others	-1158
arch	-1159
ift	-1160
▁beans	-1161
▁cho	-1162
▁med	-1163
▁vanilla	-1164
▁started	-1165
▁sou	-1166
▁supp	-1167
ucks	-1168
inger	-1169
▁liked	-1170
▁whe	-1171
▁That	-1172
▁sw	-1173
▁rest	-1174
▁let	-1175
▁instead	-1176
▁couple	-1177
av	-1178
dd	-1179
▁gave	-1180
ump	-1181
erson	-1182
▁minutes	-1183
▁black	-1184
▁pla	-1185
▁went	-1186
▁why	-1187
▁wa	-1188
▁especially	-1189
▁nothing	-1190
ail	-1191
▁popcorn	-1192
▁exper	-1193
▁syrup	-1194
▁Just	-1195
▁bread	-1196
▁house	-1197
though	-1198
▁either	-1199
eth	-1200
▁slight	-1201
lad	-1202
bscri	-1203
▁bel	-1204
▁second	-1205
▁ago	-1206
▁:	-1207
ummy	-1208
▁Very	-1209
▁amaz	-1210
arm	-1211
▁cheese	-1212
▁lab	-1213
led	-1214
▁wanted	-1215
▁boxes	-1216
▁vers	-1217
ghter	-1218
▁cheaper	-1219
▁extra	-1220
▁oz	-1221
▁quickly	-1222
▁meal	-1223
▁crack	-1224
▁absolutely	-1225
▁nutr	-1226
▁THE	-1227
▁man	-1228
▁call	-1229
▁next	-1230
bo	-1231
▁cups	-1232
▁pod	-1233
▁wasn	-1234
▁longer	-1235
llow	-1236
▁Well	-1237
iving	-1238
▁rich	-1239
▁One	-1240
▁mouth	-1241
▁gift	-1242
▁fo	-1243
▁recommended	-1244
▁Bl	-1245
▁clean	-1246
arl	-1247
▁color	-1248
ted	-1249
▁ret	-1250
ited	-1251
It	-1252
▁works	-1253
lud	-1254
▁fast	-1255
▁wish	-1256
▁spec	-1257
▁potato	-1258
urig	-1259
▁iss	-1260
▁yet	-1261
▁week	-1262
▁care	-1263
▁took	-1264
▁20	-1265
ual	-1266
▁myself	-1267
▁oat	-1268
▁LOVE	-1269
▁Tea	-1270
▁energy	-1271
▁tell	-1272
▁pieces	-1273
ST	-1274
▁red	-1275
let	-1276
▁fan	-1277
iss	-1278
▁soft	-1279
▁kit	-1280
▁honey	-1281
py	-1282
line	-1283
ense	-1284
▁Ke	-1285
oz	-1286
▁hour	-1287
emon	-1288
unce	-1289
▁powder	-1290
▁under	-1291
▁art	-1292
▁baby	-1293
▁eff	-1294
ating	-1295
ents	-1296
▁ordering	-1297
where	-1298
ering	-1299
▁cans	-1300
ND	-1301
This	-1302
.5	-1303
mp	-1304
rect	-1305
▁juice	-1306
▁pay	-1307
▁norm	-1308
etc	-1309
like	-1310
▁stra	-1311
▁conven	-1312
▁sour	-1313
▁bow	-1314
opped	-1315
▁person	-1316
▁cookie	-1317
▁however	-1318
▁side	-1319
land	-1320
fort	-1321
rigin	-1322
ically	-1323
▁rather	-1324
▁Now	-1325
▁exc	-1326
▁hair	-1327
rew	-1328
▁ter	-1329
▁pleas	-1330
▁Coffee	-1331
▁amazing	-1332
amon	-1333
ob	-1334
▁Pe	-1335
▁anyone	-1336
▁son	-1337
ife	-1338
▁etc	-1339
LL	-1340
ny	-1341
ale	-1342
▁Keurig	-1343
free	-1344
▁val	-1345
▁bas	-1346
ody	-1347
▁<	-1348
▁altern	-1349
ieve	-1350
eft	-1351
▁cut	-1352
▁includ	-1353
▁Also	-1354
ully	-1355
▁What	-1356
▁likes	-1357
innamon	-1358
itional	-1359
▁7	-1360
▁left	-1361
▁couldn	-1362
arbucks	-1363
▁descri	-1364
▁market	-1365
ughter	-1366
▁conc	-1367
▁pres	-1368
▁plastic	-1369
▁difference	-1370
▁save	-1371
▁brown	-1372
▁glad	-1373
uring	-1374
mon	-1375
▁Green	-1376
▁NOT	-1377
▁breakfast	-1378
▁All	-1379
▁white	-1380
▁mach	-1381
▁1/	-1382
ng	-1383
ord	-1384
osed	-1385
▁weight	-1386
itam	-1387
iber	-1388
▁$1	-1389
erky	-1390
▁set	-1391
▁pound	-1392
ush	-1393
taste	-1394
▁stand	-1395
▁soup	-1396
ug	-1397
▁night	-1398
ened	-1399
▁cold	-1400
arly	-1401
▁everything	-1402
▁almond	-1403
▁cert	-1404
▁problems	-1405
▁friends	-1406
▁pasta	-1407
▁exact	-1408
▁spicy	-1409
▁Be	-1410
▁inf	-1411
▁wouldn	-1412
▁arom	-1413
reme	-1414
▁pepper	-1415
▁ent	-1416
esome	-1417
▁deli	-1418
▁consist	-1419
king	-1420
▁opened	-1421
enef	-1422
▁bowl	-1423
▁daughter	-1424
▁Sp	-1425
▁says	-1426
▁teeth	-1427
ons	-1428
OU	-1429
med	-1430
▁100	-1431
ized	-1432
ward	-1433
▁gets	-1434
▁artific	-1435
ues	-1436
▁bold	-1437
▁label	-1438
ula	-1439
▁carry	-1440
▁contin	-1441
▁value	-1442
:<	-1443
▁online	-1444
▁pet	-1445
▁version	-1446
vice	-1447
▁Un	-1448
▁type	-1449
▁Good	-1450
▁result	-1451
ouch	-1452
▁mild	-1453
ingle	-1454
man	-1455
ention	-1456
▁partic	-1457
▁Fr	-1458
▁sit	-1459
▁subscri	-1460
▁complet	-1461
cups	-1462
**	-1463
▁id	-1464
amp	-1465
ON	-1466
▁guess	-1467
meal	-1468
▁seed	-1469
▁giving	-1470
▁believe	-1471
▁Can	-1472
eep	-1473
▁goes	-1474
▁wheat	-1475
itive	-1476
rench	-1477
▁mixed	-1478
▁cond	-1479
▁often	-1480
but	-1481
▁easily	-1482
resso	-1483
▁enjoyed	-1484
ys	-1485
▁Love	-1486
▁coffe	-1487
▁amazon	-1488
ex	-1489
▁crunchy	-1490
iny	-1491
ying	-1492
▁container	-1493
▁slightly	-1494
aps	-1495
ook	-1496
ched	-1497
vious	-1498
▁canned	-1499
▁salty	-1500
▁machine	-1501
▁ice	-1502
▁Starbucks	-1503
▁smaller	-1504
ilar	-1505
enc	-1506
▁rese	-1507
▁cour	-1508
rible	-1509
▁origin	-1510
▁9	-1511
▁ground	-1512
ocess	-1513
antly	-1514
▁lemon	-1515
▁pup	-1516
▁spr	-1517
▁weeks	-1518
▁complete	-1519
▁cooking	-1520
▁veget	-1521
▁Sh	-1522
▁repl	-1523
▁drinks	-1524
▁caffe	-1525
▁benef	-1526
▁life	-1527
inner	-1528
▁haven	-1529
▁swit	-1530
▁effect	-1531
ply	-1532
▁fun	-1533
▁artificial	-1534
▁close	-1535
ween	-1536
▁jerky	-1537
ne	-1538
▁nuts	-1539
▁ship	-1540
▁gum	-1541
ev	-1542
EA	-1543
▁star	-1544
▁particular	-1545
▁season	-1546
▁course	-1547
▁thick	-1548
▁snacks	-1549
gest	-1550
ze	-1551
▁maybe	-1552
▁subst	-1553
▁alternative	-1554
gr	-1555
▁.	-1556
▁att	-1557
ola	-1558
ouble	-1559
ina	-1560
▁plain	-1561
▁certain	-1562
▁gener	-1563
ired	-1564
▁nood	-1565
▁stom	-1566
▁ginger	-1567
unately	-1568
".	-1569
▁cannot	-1570
▁tot	-1571
ations	-1572
▁vet	-1573
ird	-1574
▁single	-1575
▁coffees	-1576
▁child	-1577
▁dried	-1578
▁aftertaste	-1579
▁soy	-1580
vered	-1581
▁similar	-1582
ustom	-1583
▁ok	-1584
▁beef	-1585
▁place	-1586
▁surprised	-1587
▁comb	-1588
▁direct	-1589
nut	-1590
anks	-1591
▁wife	-1592
▁allerg	-1593
▁special	-1594
ning	-1595
▁stomach	-1596
▁fig	-1597
▁four	-1598
ters	-1599
▁cur	-1600
▁point	-1601
▁tend	-1602
ED	-1603
▁Our	-1604
▁pleased	-1605
▁aroma	-1606
▁consid	-1607
aw	-1608
▁recipe	-1609
ables	-1610
ggest	-1611
▁cinnamon	-1612
▁Organic	-1613
▁process	-1614
▁Pr	-1615
▁weak	-1616
▁Di	-1617
▁New	-1618
▁compla	-1619
row	-1620
▁between	-1621
▁fiber	-1622
▁flour	-1623
▁wait	-1624
▁jar	-1625
ining	-1626
▁mess	-1627
OR	-1628
ck	-1629
▁daily	-1630
ature	-1631
to	-1632
cc	-1633
els	-1634
ivid	-1635
▁saw	-1636
ork	-1637
▁exactly	-1638
▁suggest	-1639
▁itself	-1640
▁line	-1641
▁fair	-1642
isc	-1643
oor	-1644
▁Che	-1645
sp	-1646
▁formula	-1647
▁To	-1648
▁tur	-1649
ready	-1650
▁wrong	-1651
▁experience	-1652
▁Ro	-1653
▁sometimes	-1654
ING	-1655
pe	-1656
▁caffeine	-1657
▁fish	-1658
▁ate	-1659
ats	-1660
▁prep	-1661
▁cris	-1662
▁wra	-1663
▁picky	-1664
If	-1665
▁stock	-1666
▁US	-1667
▁crackers	-1668
▁option	-1669
</	-1670
▁bul	-1671
▁non	-1672
ool	-1673
way	-1674
▁chip	-1675
▁rel	-1676
▁choice	-1677
▁Even	-1678
▁already	-1679
▁body	-1680
▁change	-1681
▁flavorful	-1682
iness	-1683
▁addic	-1684
▁With	-1685
▁everyone	-1686
▁heat	-1687
▁pods	-1688
▁ass	-1689
▁condition	-1690
▁noticed	-1691
▁Pl	-1692
OO	-1693
asing	-1694
▁inside	-1695
▁individ	-1696
!!!!	-1697
▁coco	-1698
▁soon	-1699
."	-1700
ces	-1701
▁recently	-1702
).<	-1703
ili	-1704
ency	-1705
▁throw	-1706
yd	-1707
ract	-1708
▁Don	-1709
ined	-1710
▁during	-1711
ops	-1712
ches	-1713
▁squ	-1714
fortunately	-1715
▁smells	-1716
ides	-1717
▁looked	-1718
▁idea	-1719
▁tri	-1720
▁At	-1721
ory	-1722
▁plus	-1723
▁15	-1724
▁acc	-1725
vent	-1726
▁Food	-1727
▁expected	-1728
AN	-1729
▁Re	-1730
▁hours	-1731
▁gone	-1732
lect	-1733
uge	-1734
▁live	-1735
erest	-1736
▁hold	-1737
▁needed	-1738
alt	-1739
poon	-1740
▁prov	-1741
▁packs	-1742
ign	-1743
ES	-1744
▁contains	-1745
▁bite	-1746
▁awesome	-1747
ino	-1748
▁helps	-1749
▁gran	-1750
lled	-1751
▁date	-1752
▁looks	-1753
mm	-1754
▁convenient	-1755
▁turn	-1756
▁custom	-1757
▁salad	-1758
▁yummy	-1759
▁entire	-1760
▁compared	-1761
▁someone	-1762
▁aren	-1763
▁larger	-1764
▁service	-1765
rit	-1766
▁oatmeal	-1767
IC	-1768
▁AND	-1769
▁acid	-1770
▁sol	-1771
▁grain	-1772
▁mind	-1773
▁count	-1774
ior	-1775
▁skin	-1776
urt	-1777
▁bon	-1778
▁extreme	-1779
ines	-1780
▁huge	-1781
antastic	-1782
atter	-1783
▁along	-1784
▁leave	-1785
aked	-1786
zy	-1787
▁show	-1788
▁cocoa	-1789
▁sam	-1790
▁continue	-1791
▁blue	-1792
▁simply	-1793
de	-1794
▁cake	-1795
My	-1796
▁later	-1797
▁spice	-1798
mber	-1799
▁main	-1800
▁done	-1801
▁bulk	-1802
ox	-1803
▁due	-1804
mer	-1805
▁glass	-1806
▁ol	-1807
Pack	-1808
▁completely	-1809
▁liqu	-1810
▁soda	-1811
▁Chocolate	-1812
▁bottles	-1813
▁feeding	-1814
▁leaves	-1815
▁mention	-1816
Cup	-1817
▁decaf	-1818
▁prom	-1819
▁egg	-1820
▁chang	-1821
▁opin	-1822
▁disco	-1823
▁delivery	-1824
ole	-1825
IS	-1826
▁needs	-1827
▁z	-1828
▁interest	-1829
▁24	-1830
▁adding	-1831
▁hor	-1832
ss	-1833
ants	-1834
ots	-1835
▁Since	-1836
▁seeds	-1837
▁noodles	-1838
▁appe	-1839
▁sodium	-1840
ling	-1841
▁eaten	-1842
mit	-1843
verage	-1844
▁although	-1845
pped	-1846
▁given	-1847
▁str	-1848
▁packaged	-1849
▁name	-1850
umb	-1851
▁takes	-1852
▁excited	-1853
more	-1854
▁mint	-1855
▁gives	-1856
ites	-1857
▁chem	-1858
▁Cr	-1859
ountain	-1860
ydr	-1861
▁pill	-1862
▁Blue	-1863
ments	-1864
▁lunch	-1865
▁notice	-1866
stand	-1867
elt	-1868
▁mel	-1869
which	-1870
oduc	-1871
asy	-1872
ern	-1873
▁vitam	-1874
▁healthier	-1875
▁em	-1876
ana	-1877
▁plan	-1878
▁hope	-1879
▁opinion	-1880
▁:)	-1881
▁diffic	-1882
uly	-1883
▁follow	-1884
▁filling	-1885
▁impress	-1886
▁medium	-1887
▁While	-1888
▁sold	-1889
key	-1890
ds	-1891
▁miss	-1892
▁issues	-1893
▁short	-1894
▁dri	-1895
▁occ	-1896
mas	-1897
▁test	-1898
▁mic	-1899
▁$2	-1900
▁shipped	-1901
▁fantastic	-1902
ighly	-1903
▁substit	-1904
▁seemed	-1905
▁taking	-1906
▁packets	-1907
▁bur	-1908
▁stay	-1909
▁items	-1910
▁extremely	-1911
▁packet	-1912
ican	-1913
▁Every	-1914
000	-1915
▁sent	-1916
▁French	-1917
▁pic	-1918
te	-1919
▁waste	-1920
▁grams	-1921
ination	-1922
▁Then	-1923
gra	-1924
▁content	-1925
▁BE	-1926
▁aut	-1927
ured	-1928
rist	-1929
▁hint	-1930
▁May	-1931
▁original	-1932
▁packages	-1933
▁import	-1934
evia	-1935
▁iced	-1936
▁reme	-1937
▁IT	-1938
▁carb	-1939
▁hig	-1940
TH	-1941
▁seal	-1942
AR	-1943
▁requ	-1944
▁doing	-1945
▁lots	-1946
▁maker	-1947
▁chewy	-1948
▁gre	-1949
▁sweetness	-1950
▁certainly	-1951
▁Thank	-1952
▁sens	-1953
▁digest	-1954
▁mine	-1955
▁normal	-1956
▁50	-1957
medi	-1958
▁Thanks	-1959
▁espresso	-1960
)</	-1961
aple	-1962
▁told	-1963
▁bal	-1964
▁calorie	-1965
▁instant	-1966
pow	-1967
UT	-1968
▁aff	-1969
▁apple	-1970
▁liquid	-1971
▁level	-1972
▁bottom	-1973
pack	-1974
▁trans	-1975
amel	-1976
wise	-1977
▁port	-1978
▁orange	-1979
▁true	-1980
▁replac	-1981
leep	-1982
??	-1983
EN	-1984
▁Ex	-1985
agn	-1986
▁granola	-1987
▁toget	-1988
▁together	-1989
▁heart	-1990
berries	-1991
▁Some	-1992
▁1/2	-1993
▁seen	-1994
▁immedi	-1995
▁dra	-1996
ivered	-1997
uf	-1998
▁purchasing	-1999
ristmas	-2000
.)	-2001
▁difficult	-2002
▁twice	-2003
▁called	-2004
▁16	-2005
ucc	-2006
▁ant	-2007
▁consum	-2008
▁return	-2009
una	-2010
▁cla	-2011
▁raw	-2012
▁tom	-2013
inegar	-2014
orice	-2015
▁straw	-2016
ath	-2017
▁ounce	-2018
▁almonds	-2019
ret	-2020
eed	-2021
▁easier	-2022
▁addition	-2023
que	-2024
▁warm	-2025
▁based	-2026
▁five	-2027
▁eats	-2028
ossible	-2029
▁dist	-2030
▁disc	-2031
oid	-2032
▁dep	-2033
ced	-2034
ah	-2035
aur	-2036
▁reading	-2037
unk	-2038
▁Su	-2039
▁puppy	-2040
▁Roast	-2041
▁refres	-2042
▁30	-2043
▁stop	-2044
▁benefits	-2045
▁sale	-2046
what	-2047
▁microw	-2048
icorice	-2049
no	-2050
▁become	-2051
▁finally	-2052
▁vegg	-2053
▁varieties	-2054
alm	-2055
made	-2056
▁mom	-2057
▁within	-2058
▁delivered	-2059
.9	-2060
ope	-2061
ERY	-2062
▁Per	-2063
▁stopped	-2064
▁baking	-2065
▁sort	-2066
aid	-2067
▁hit	-2068
▁dish	-2069
oken	-2070
ler	-2071
▁En	-2072
▁Will	-2073
So	-2074
▁decent	-2075
▁batch	-2076
▁manuf	-2077
▁pump	-2078
▁allow	-2079
erv	-2080
▁yourself	-2081
▁consistency	-2082
▁superm	-2083
▁results	-2084
ruct	-2085
▁Chicken	-2086
▁pure	-2087
verall	-2088
▁search	-2089
▁Red	-2090
▁Christmas	-2091
▁nutrition	-2092
arent	-2093
▁Mountain	-2094
vert	-2095
▁today	-2096
bed	-2097
▁Nut	-2098
12	-2099
▁air	-2100
▁dinner	-2101
▁char	-2102
ont	-2103
▁world	-2104
▁num	-2105
▁Gr	-2106
ingly	-2107
▁heav	-2108
▁lower	-2109
▁keeps	-2110
ley	-2111
▁mar	-2112
▁supposed	-2113
▁Wellness	-2114
▁Natural	-2115
ton	-2116
▁sweetener	-2117
▁pou	-2118
▁immediately	-2119
▁watch	-2120
▁description	-2121
▁grind	-2122
▁Do	-2123
▁impr	-2124
▁worked	-2125
▁dent	-2126
▁An	-2127
▁anymore	-2128
▁compar	-2129
▁means	-2130
▁refreshing	-2131
▁piece	-2132
herry	-2133
▁consider	-2134
▁fil	-2135
mb	-2136
▁loose	-2137
onest	-2138
▁research	-2139
▁discovered	-2140
▁hun	-2141
▁complaint	-2142
▁truly	-2143
part	-2144
▁creamy	-2145
▁occas	-2146
▁tomato	-2147
LY	-2148
▁/>-	-2149
▁shap	-2150
▁ball	-2151
ors	-2152
▁packed	-2153
▁webs	-2154
▁...	-2155
▁felt	-2156
▁training	-2157
whe	-2158
▁bus	-2159
▁cas	-2160
▁sea	-2161
▁tiny	-2162
ci	-2163
▁Ital	-2164
arlic	-2165
aper	-2166
haps	-2167
time	-2168
▁mean	-2169
▁sick	-2170
▁stale	-2171
▁recipes	-2172
chen	-2173
▁customer	-2174
▁normally	-2175
lves	-2176
▁broken	-2177
pect	-2178
▁wal	-2179
▁doll	-2180
▁prop	-2181
oe	-2182
▁matter	-2183
▁brewed	-2184
▁pleasant	-2185
▁Coc	-2186
asp	-2187
viously	-2188
Ounce	-2189
▁toy	-2190
▁blood	-2191
atives	-2192
▁ban	-2193
▁Br	-2194
▁First	-2195
▁thinking	-2196
▁seller	-2197
ax	-2198
▁Best	-2199
▁bland	-2200
▁remember	-2201
ogurt	-2202
▁wet	-2203
▁area	-2204
▁issue	-2205
▁locally	-2206
▁finish	-2207
za	-2208
10	-2209
▁TO	-2210
cept	-2211
▁bring	-2212
▁higher	-2213
▁delight	-2214
arth	-2215
▁kick	-2216
▁ob	-2217
AS	-2218
▁ph	-2219
▁mid	-2220
▁microwave	-2221
▁spoon	-2222
▁shipment	-2223
▁Highly	-2224
▁sweeten	-2225
▁,	-2226
▁sleep	-2227
▁touch	-2228
▁combination	-2229
▁substitute	-2230
iment	-2231
▁grow	-2232
▁satisfying	-2233
----	-2234
asty	-2235
▁overpow	-2236
air	-2237
ume	-2238
▁Sc	-2239
▁plac	-2240
▁0	-2241
▁manufac	-2242
▁feeling	-2243
▁six	-2244
▁send	-2245
▁stea	-2246
▁summ	-2247
▁Maybe	-2248
▁olive	-2249
▁anywhere	-2250
▁stronger	-2251
▁spices	-2252
aut	-2253
imal	-2254
▁ON	-2255
arn	-2256
yle	-2257
▁baked	-2258
▁sand	-2259
▁cool	-2260
▁rep	-2261
▁creat	-2262
ished	-2263
▁pour	-2264
abet	-2265
▁website	-2266
▁Tw	-2267
▁simple	-2268
▁lack	-2269
▁Unfortunately	-2270
ement	-2271
▁roll	-2272
ooked	-2273
▁subscribe	-2274
▁Blend	-2275
▁craving	-2276
▁thin	-2277
rilled	-2278
▁remind	-2279
▁100%	-2280
▁contr	-2281
▁perfectly	-2282
▁Try	-2283
▁cooked	-2284
just	-2285
elnut	-2286
▁finding	-2287
▁licorice	-2288
▁turned	-2289
▁restaur	-2290
▁equ	-2291
▁changed	-2292
ence	-2293
▁Its	-2294
▁yogurt	-2295
▁reasonable	-2296
AL	-2297
▁nearly	-2298
▁card	-2299
OM	-2300
▁boil	-2301
▁Alm	-2302
▁totally	-2303
board	-2304
▁allergies	-2305
ison	-2306
▁vis	-2307
▁switch	-2308
▁beat	-2309
stem	-2310
They	-2311
ulous	-2312
▁Dog	-2313
▁fut	-2314
▁standard	-2315
ye	-2316
ower	-2317
▁appre	-2318
",	-2319
io	-2320
▁somewhat	-2321
tive	-2322
▁Fla	-2323
▁expecting	-2324
▁Del	-2325
▁Vanilla	-2326
▁pass	-2327
▁IS	-2328
▁Although	-2329
atever	-2330
▁quant	-2331
▁seasoning	-2332
▁source	-2333
▁Amer	-2334
▁claim	-2335
fla	-2336
ified	-2337
▁Stash	-2338
▁supple	-2339
▁future	-2340
▁vinegar	-2341
▁avoid	-2342
▁moist	-2343
▁det	-2344
▁prices	-2345
!)	-2346
▁reviewers	-2347
allow	-2348
▁pricey	-2349
▁occasion	-2350
▁hoping	-2351
enty	-2352
oles	-2353
▁drinker	-2354
▁uses	-2355
▁fit	-2356
aged	-2357
zer	-2358
▁fall	-2359
mium	-2360
▁crazy	-2361
▁brewing	-2362
▁individual	-2363
oved	-2364
▁mixes	-2365
pping	-2366
▁unless	-2367
▁near	-2368
▁impressed	-2369
▁room	-2370
▁THIS	-2371
▁travel	-2372
ric	-2373
▁ready	-2374
▁serve	-2375
▁ed	-2376
▁hum	-2377
▁advert	-2378
▁caramel	-2379
IT	-2380
met	-2381
aker	-2382
▁reviewer	-2383
▁chewing	-2384
▁door	-2385
▁hooked	-2386
▁horrible	-2387
▁tuna	-2388
▁appreci	-2389
▁incre	-2390
▁garlic	-2391
▁mostly	-2392
▁Pop	-2393
ott	-2394
▁press	-2395
▁none	-2396
▁head	-2397
▁panc	-2398
Wh	-2399
ather	-2400
▁listed	-2401
▁beg	-2402
elly	-2403
▁Newman	-2404
▁agree	-2405
▁Rec	-2406
▁favorites	-2407
▁fairly	-2408
▁var	-2409
▁system	-2410
atic	-2411
▁medic	-2412
▁including	-2413
▁heavy	-2414
▁forward	-2415
.00	-2416
▁number	-2417
▁Se	-2418
dge	-2419
▁instruct	-2420
▁note	-2421
irl	-2422
▁satisfied	-2423
▁match	-2424
▁Other	-2425
ango	-2426
▁diabet	-2427
▁sound	-2428
▁Sm	-2429
▁offer	-2430
noon	-2431
▁$3	-2432
reak	-2433
bb	-2434
▁ber	-2435
oub	-2436
▁Yes	-2437
▁spend	-2438
ique	-2439
▁straight	-2440
opping	-2441
We	-2442
▁flavoring	-2443
ding	-2444
riger	-2445
oduced	-2446
▁awful	-2447
▁types	-2448
▁check	-2449
▁beaut	-2450
▁stir	-2451
▁hands	-2452
▁veggies	-2453
▁meals	-2454
iscuit	-2455
ming	-2456
▁switched	-2457
▁Black	-2458
LE	-2459
▁chun	-2460
▁usual	-2461
▁supermarket	-2462
UC	-2463
▁pretz	-2464
rent	-2465
▁carbs	-2466
▁Plus	-2467
▁nutritional	-2468
▁cause	-2469
▁overall	-2470
▁clear	-2471
▁terrible	-2472
▁dress	-2473
aj	-2474
arned	-2475
▁pounds	-2476
althy	-2477
▁Most	-2478
yl	-2479
▁bones	-2480
▁Dr	-2481
▁trad	-2482
ister	-2483
▁important	-2484
tain	-2485
dered	-2486
▁tart	-2487
arr	-2488
.....	-2489
▁sandw	-2490
▁inform	-2491
▁knew	-2492
▁grains	-2493
▁job	-2494
OW	-2495
aspberry	-2496
▁paid	-2497
▁office	-2498
▁okay	-2499
▁chili	-2500
ner	-2501
▁kitchen	-2502
sweet	-2503
▁Dark	-2504
▁Of	-2505
▁bean	-2506
fully	-2507
▁toast	-2508
▁sign	-2509
▁control	-2510
oke	-2511
ued	-2512
ettle	-2513
▁Com	-2514
for	-2515
ities	-2516
▁ins	-2517
▁coming	-2518
▁Gre	-2519
▁Any	-2520
▁Diet	-2521
unces	-2522
▁refriger	-2523
As	-2524
par	-2525
ility	-2526
▁lick	-2527
▁Ind	-2528
ourmet	-2529
▁picture	-2530
▁crisp	-2531
▁summer	-2532
ibble	-2533
▁heard	-2534
essert	-2535
▁convenience	-2536
▁Cost	-2537
isk	-2538
iration	-2539
▁imag	-2540
▁manufacture	-2541
gth	-2542
▁honest	-2543
▁neg	-2544
VER	-2545
▁shop	-2546
▁China	-2547
▁VERY	-2548
▁wr	-2549
vour	-2550
▁understand	-2551
▁pain	-2552
▁children	-2553
▁sensitive	-2554
▁const	-2555
▁ton	-2556
ero	-2557
▁whatever	-2558
▁ended	-2559
▁sticks	-2560
▁alone	-2561
▁mult	-2562
uces	-2563
▁kept	-2564
▁sk	-2565
▁sitting	-2566
ts	-2567
▁SO	-2568
gain	-2569
▁actual	-2570
▁extract	-2571
▁overly	-2572
mint	-2573
entr	-2574
▁Gl	-2575
▁Foods	-2576
▁outside	-2577
▁steep	-2578
▁solid	-2579
cellent	-2580
order	-2581
food	-2582
▁ounces	-2583
▁gas	-2584
▁po	-2585
used	-2586
▁subtle	-2587
my	-2588
▁shelf	-2589
▁priced	-2590
▁yes	-2591
▁beautif	-2592
ecause	-2593
But	-2594
▁sealed	-2595
cle	-2596
▁Pet	-2597
▁IN	-2598
ancy	-2599
▁Gra	-2600
▁pouch	-2601
▁Eng	-2602
▁sample	-2603
▁sprink	-2604
▁afternoon	-2605
▁lost	-2606
▁Italian	-2607
▁salmon	-2608
bal	-2609
hydr	-2610
▁Whole	-2611
▁anyway	-2612
▁except	-2613
sh	-2614
Al	-2615
ET	-2616
▁vitamins	-2617
▁/>1	-2618
ages	-2619
▁Pack	-2620
▁mush	-2621
▁vegetables	-2622
▁running	-2623
ross	-2624
▁dam	-2625
▁remain	-2626
▁Free	-2627
▁post	-2628
▁Tra	-2629
▁Almond	-2630
whel	-2631
▁supply	-2632
▁replacement	-2633
▁safe	-2634
AY	-2635
▁11	-2636
?<	-2637
iously	-2638
▁OK	-2639
▁Like	-2640
icing	-2641
▁terri	-2642
▁worry	-2643
▁hate	-2644
hew	-2645
na	-2646
▁dessert	-2647
REAT	-2648
In	-2649
ibly	-2650
▁pumpkin	-2651
▁overpowering	-2652
▁win	-2653
▁pos	-2654
▁wrapped	-2655
▁adult	-2656
▁caus	-2657
action	-2658
▁figured	-2659
▁stuck	-2660
▁expiration	-2661
▁met	-2662
▁Sweet	-2663
▁Tr	-2664
▁breat	-2665
▁known	-2666
▁homemade	-2667
▁sch	-2668
▁shape	-2669
▁opening	-2670
pple	-2671
▁rid	-2672
▁Mix	-2673
▁cor	-2674
they	-2675
▁chews	-2676
▁Wor	-2677
ablespoon	-2678
▁subscription	-2679
agnes	-2680
▁possible	-2681
▁instructions	-2682
▁conf	-2683
▁please	-2684
▁class	-2685
▁mod	-2686
▁Add	-2687
▁Tast	-2688
▁grand	-2689
ryst	-2690
agnesium	-2691
▁offered	-2692
▁across	-2693
▁coat	-2694
▁Cl	-2695
▁bed	-2696
▁manufacturer	-2697
ator	-2698
▁incred	-2699
▁helped	-2700
▁various	-2701
▁Would	-2702
▁biscuit	-2703
▁fra	-2704
▁ask	-2705
▁Sup	-2706
▁jars	-2707
▁afford	-2708
▁chai	-2709
▁eggs	-2710
set	-2711
▁weird	-2712
aring	-2713
appy	-2714
▁scr	-2715
▁adds	-2716
▁bits	-2717
▁roasted	-2718
Cups	-2719
▁Grey	-2720
▁scent	-2721
▁*	-2722
▁doub	-2723
▁Bu	-2724
▁spread	-2725
amond	-2726
▁HA	-2727
▁Save	-2728
▁pal	-2729
▁Mar	-2730
▁rais	-2731
▁paper	-2732
▁directions	-2733
▁teaspoon	-2734
iff	-2735
▁current	-2736
▁total	-2737
selves	-2738
▁dont	-2739
by	-2740
▁Ger	-2741
▁poor	-2742
▁Pur	-2743
orry	-2744
001	-2745
▁temp	-2746
▁pock	-2747
▁pull	-2748
AST	-2749
These	-2750
▁nicely	-2751
.99	-2752
ini	-2753
▁overwhel	-2754
▁slow	-2755
▁everyday	-2756
ida	-2757
▁share	-2758
▁select	-2759
▁plant	-2760
▁resp	-2761
ety	-2762
▁putting	-2763
▁Excellent	-2764
SE	-2765
▁14	-2766
▁18	-2767
▁fur	-2768
▁working	-2769
▁compare	-2770
▁BB	-2771
▁unique	-2772
▁chance	-2773
▁fix	-2774
▁nor	-2775
▁strawberry	-2776
▁Cal	-2777
RO	-2778
uss	-2779
▁double	-2780
▁trouble	-2781
▁potatoes	-2782
▁gotten	-2783
▁drank	-2784
▁plenty	-2785
▁bitterness	-2786
▁peanuts	-2787
▁surprise	-2788
▁Go	-2789
▁brought	-2790
▁sauces	-2791
lease	-2792
▁admit	-2793
▁Big	-2794
▁tablespoon	-2795
alo	-2796
▁portion	-2797
bscribe	-2798
▁beverage	-2799
▁shamp	-2800
room	-2801
▁Earl	-2802
ona	-2803
ution	-2804
▁chocol	-2805
▁fridge	-2806
▁liter	-2807
▁Sa	-2808
▁Both	-2809
▁ir	-2810
▁luck	-2811
▁shake	-2812
▁dishes	-2813
▁kinds	-2814
▁Ar	-2815
right	-2816
▁rating	-2817
▁tooth	-2818
ics	-2819
oked	-2820
▁pan	-2821
▁mixing	-2822
▁preserv	-2823
lly	-2824
iting	-2825
▁vend	-2826
▁mentioned	-2827
onut	-2828
▁DO	-2829
▁bac	-2830
aken	-2831
zz	-2832
ajor	-2833
▁site	-2834
▁Salt	-2835
▁oats	-2836
per	-2837
▁banana	-2838
OOD	-2839
ged	-2840
▁chunks	-2841
▁saying	-2842
▁YOU	-2843
▁inv	-2844
▁fre	-2845
▁careful	-2846
ecess	-2847
▁likely	-2848
▁coll	-2849
▁eater	-2850
20	-2851
fl	-2852
▁ST	-2853
anced	-2854
▁candies	-2855
▁25	-2856
▁AM	-2857
▁negative	-2858
▁kibble	-2859
▁wine	-2860
St	-2861
▁haz	-2862
▁mist	-2863
asting	-2864
enseo	-2865
▁carrying	-2866
ita	-2867
▁servings	-2868
▁cherry	-2869
▁mis	-2870
▁Each	-2871
▁thrilled	-2872
▁concer	-2873
▁information	-2874
▁filled	-2875
lish	-2876
▁proper	-2877
well	-2878
▁froz	-2879
▁bigger	-2880
▁spl	-2881
▁pin	-2882
▁worst	-2883
▁costs	-2884
▁asked	-2885
vy	-2886
...<	-2887
yes	-2888
this	-2889
▁Only	-2890
umbs	-2891
▁Once	-2892
▁thank	-2893
aven	-2894
▁breath	-2895
ids	-2896
reakfast	-2897
▁mac	-2898
▁oils	-2899
▁major	-2900
▁disp	-2901
▁Taste	-2902
▁selling	-2903
▁mother	-2904
cha	-2905
▁mug	-2906
▁style	-2907
icky	-2908
▁appro	-2909
▁lb	-2910
ph	-2911
▁lat	-2912
of	-2913
▁quantity	-2914
ica	-2915
arian	-2916
▁crispy	-2917
▁older	-2918
ma	-2919
gry	-2920
▁2-	-2921
DA	-2922
▁supplement	-2923
▁Dec	-2924
▁concentr	-2925
▁emp	-2926
▁pretzels	-2927
IG	-2928
▁OF	-2929
dle	-2930
▁Butter	-2931
▁blends	-2932
▁Overall	-2933
▁Costco	-2934
▁traditional	-2935
▁intr	-2936
▁Pri	-2937
▁chemical	-2938
▁sun	-2939
iest	-2940
itamin	-2941
▁generally	-2942
illed	-2943
▁base	-2944
▁balance	-2945
▁(1	-2946
AC	-2947
▁GREAT	-2948
▁13	-2949
▁smelled	-2950
▁Bar	-2951
▁restaurant	-2952
▁allergic	-2953
▁setting	-2954
nda	-2955
▁Oh	-2956
▁school	-2957
▁sweetened	-2958
▁nasty	-2959
▁above	-2960
▁worse	-2961
UM	-2962
▁paying	-2963
▁40	-2964
▁Me	-2965
▁Honey	-2966
▁included	-2967
▁perhaps	-2968
sit	-2969
inated	-2970
▁picked	-2971
▁present	-2972
▁sco	-2973
▁Ac	-2974
▁served	-2975
▁average	-2976
▁clos	-2977
▁frozen	-2978
ection	-2979
▁boost	-2980
oil	-2981
▁bone	-2982
▁dissol	-2983
▁processed	-2984
▁evening	-2985
ugg	-2986
▁WI	-2987
▁Diamond	-2988
▁seconds	-2989
ball	-2990
▁personal	-2991
▁piz	-2992
▁junk	-2993
▁boy	-2994
▁unlike	-2995
▁concerned	-2996
▁sweeteners	-2997
riend	-2998
▁rate	-2999
▁suff	-3000
nter	-3001
▁Gold	-3002
amb	-3003
▁freeze	-3004
▁otherwise	-3005
▁Was	-3006
▁bunch	-3007
cher	-3008
▁meas	-3009
▁exception	-3010
▁prompt	-3011
▁appreciate	-3012
▁shot	-3013
▁third	-3014
▁receive	-3015
▁stevia	-3016
antry	-3017
ext	-3018
▁vegan	-3019
olid	-3020
aving	-3021
▁contact	-3022
▁pancakes	-3023
▁themselves	-3024
ills	-3025
▁realize	-3026
▁addicted	-3027
▁FOR	-3028
▁deep	-3029
▁lbs	-3030
▁face	-3031
▁grab	-3032
ane	-3033
▁dollars	-3034
▁Chai	-3035
▁flow	-3036
▁beh	-3037
▁sampl	-3038
▁became	-3039
▁squee	-3040
tic	-3041
▁Have	-3042
▁separ	-3043
inct	-3044
▁apart	-3045
you	-3046
udge	-3047
▁pleasantly	-3048
iry	-3049
▁litter	-3050
▁whether	-3051
ocked	-3052
▁tired	-3053
eak	-3054
▁Her	-3055
▁shampoo	-3056
plenda	-3057
▁lover	-3058
▁dressing	-3059
▁previous	-3060
arsh	-3061
▁Rice	-3062
▁imagine	-3063
▁rub	-3064
▁individually	-3065
▁cu	-3066
▁creamer	-3067
irth	-3068
▁Bold	-3069
▁Nice	-3070
▁trip	-3071
▁/>*	-3072
ags	-3073
▁draw	-3074
▁Breakfast	-3075
▁anti	-3076
▁effects	-3077
▁party	-3078
over	-3079
▁figure	-3080
▁Us	-3081
▁pouches	-3082
▁provide	-3083
ka	-3084
▁burn	-3085
▁tang	-3086
▁LOVES	-3087
ories	-3088
▁particularly	-3089
▁odd	-3090
▁pepp	-3091
▁mini	-3092
▁Senseo	-3093
▁beautiful	-3094
▁stren	-3095
icate	-3096
▁interesting	-3097
▁wants	-3098
▁saving	-3099
▁adv	-3100
EC	-3101
▁tal	-3102
▁quest	-3103
▁lime	-3104
fr	-3105
▁matcha	-3106
▁chec	-3107
▁GF	-3108
▁American	-3109
▁By	-3110
▁Inst	-3111
▁stri	-3112
▁yellow	-3113
▁hesit	-3114
▁Tastes	-3115
▁def	-3116
▁upon	-3117
▁Somet	-3118
11	-3119
▁sized	-3120
▁maple	-3121
▁keeping	-3122
▁basically	-3123
head	-3124
▁gold	-3125
▁Product	-3126
▁positive	-3127
▁fol	-3128
▁upset	-3129
▁Cook	-3130
▁USA	-3131
▁enjoying	-3132
▁cardboard	-3133
▁empty	-3134
▁considering	-3135
▁prepare	-3136
For	-3137
▁fed	-3138
gs	-3139
▁opp	-3140
▁threw	-3141
▁trust	-3142
mine	-3143
▁pie	-3144
▁lose	-3145
▁lid	-3146
hol	-3147
▁play	-3148
▁Sugar	-3149
▁directly	-3150
▁containers	-3151
▁comple	-3152
iac	-3153
▁/>2	-3154
iod	-3155
▁comment	-3156
icals	-3157
▁ways	-3158
▁improve	-3159
▁Own	-3160
▁ran	-3161
▁round	-3162
.2	-3163
▁hungry	-3164
▁PB	-3165
▁soups	-3166
ident	-3167
▁liver	-3168
uity	-3169
▁pantry	-3170
ject	-3171
ipping	-3172
▁general	-3173
▁breast	-3174
▁crumb	-3175
lt	-3176
▁BUT	-3177
▁greasy	-3178
▁Ore	-3179
odied	-3180
▁bare	-3181
gn	-3182
▁carbon	-3183
▁typical	-3184
▁paste	-3185
▁regularly	-3186
velop	-3187
▁Pepper	-3188
,<	-3189
▁depend	-3190
▁cases	-3191
▁Ext	-3192
ushed	-3193
▁finished	-3194
▁Hot	-3195
lb	-3196
▁cereals	-3197
▁preservatives	-3198
▁3-	-3199
▁Wal	-3200
▁19	-3201
▁guil	-3202
▁girl	-3203
▁$4	-3204
aling	-3205
▁BEST	-3206
▁Easy	-3207
▁late	-3208
uccino	-3209
▁5-	-3210
▁desp	-3211
OT	-3212
▁toss	-3213
▁Chips	-3214
▁defin	-3215
▁satisfy	-3216
ral	-3217
▁frequ	-3218
▁toler	-3219
ATE	-3220
▁birth	-3221
with	-3222
▁flat	-3223
gran	-3224
date	-3225
ests	-3226
ider	-3227
▁sticky	-3228
▁bother	-3229
▁refund	-3230
▁cracker	-3231
▁lasts	-3232
▁sells	-3233
house	-3234
lax	-3235
▁fruits	-3236
▁broth	-3237
dy	-3238
▁table	-3239
▁raspberry	-3240
▁buds	-3241
▁happen	-3242
▁pork	-3243
use	-3244
▁pills	-3245
▁prepared	-3246
▁WH	-3247
▁nutrit	-3248
▁Definitely	-3249
▁CH	-3250
▁mois	-3251
▁disg	-3252
ME	-3253
▁personally	-3254
▁powdered	-3255
fic	-3256
▁mail	-3257
▁trick	-3258
▁Coconut	-3259
▁cap	-3260
▁$5	-3261
amom	-3262
▁purp	-3263
▁necess	-3264
▁Splenda	-3265
ording	-3266
▁front	-3267
▁Perfect	-3268
▁Is	-3269
▁Sal	-3270
▁od	-3271
And	-3272
oat	-3273
▁basis	-3274
▁pizza	-3275
▁compan	-3276
▁minute	-3277
▁mark	-3278
▁writ	-3279
▁strange	-3280
ring	-3281
▁counter	-3282
You	-3283
▁Col	-3284
▁bacon	-3285
▁hazelnut	-3286
▁vitamin	-3287
▁biscuits	-3288
erve	-3289
▁taken	-3290
▁covered	-3291
body	-3292
mpt	-3293
▁enjoys	-3294
▁pu	-3295
agic	-3296
▁leaf	-3297
▁premium	-3298
▁choose	-3299
empt	-3300
ones	-3301
▁nutritious	-3302
▁fore	-3303
▁word	-3304
itr	-3305
▁magnesium	-3306
▁cents	-3307
col	-3308
▁middle	-3309
▁sip	-3310
▁Sn	-3311
lus	-3312
▁Flavor	-3313
▁init	-3314
▁dairy	-3315
▁mistake	-3316
▁progra	-3317
▁knows	-3318
▁peppermint	-3319
▁Pro	-3320
▁crust	-3321
▁Car	-3322
ising	-3323
MO	-3324
tured	-3325
aff	-3326
ik	-3327
▁Still	-3328
itol	-3329
▁Really	-3330
▁rob	-3331
▁Sw	-3332
terol	-3333
▁REA	-3334
lic	-3335
▁English	-3336
▁hydr	-3337
▁Pot	-3338
▁Because	-3339
how	-3340
▁load	-3341
▁gross	-3342
▁happened	-3343
▁chemicals	-3344
LD	-3345
▁Subscribe	-3346
▁state	-3347
▁french	-3348
ham	-3349
▁book	-3350
▁experien	-3351
▁Bet	-3352
go	-3353
▁Brew	-3354
▁chocolates	-3355
▁comparison	-3356
▁relax	-3357
****	-3358
▁waff	-3359
apan	-3360
▁dip	-3361
▁grew	-3362
,"	-3363
ures	-3364
▁mango	-3365
natural	-3366
▁literally	-3367
▁relative	-3368
▁turkey	-3369
▁alot	-3370
▁200	-3371
ico	-3372
▁fruity	-3373
aturally	-3374
▁!	-3375
▁nutri	-3376
olesterol	-3377
▁prof	-3378
oduce	-3379
▁correct	-3380
▁learned	-3381
cont	-3382
▁strength	-3383
▁digestive	-3384
PS	-3385
omegran	-3386
▁intern	-3387
▁ill	-3388
▁doubt	-3389
▁Why	-3390
▁weren	-3391
▁business	-3392
▁power	-3393
▁options	-3394
▁lay	-3395
▁vegetable	-3396
▁suggested	-3397
almart	-3398
▁barely	-3399
mg	-3400
▁winter	-3401
uel	-3402
▁ALL	-3403
bread	-3404
▁advertised	-3405
FF	-3406
inc	-3407
▁jelly	-3408
▁effective	-3409
▁blueberry	-3410
ule	-3411
▁goodness	-3412
▁Everyone	-3413
▁flavour	-3414
▁Delicious	-3415
▁write	-3416
▁intake	-3417
▁CO	-3418
▁temper	-3419
sa	-3420
▁compet	-3421
▁human	-3422
healthy	-3423
▁Light	-3424
▁distinct	-3425
arently	-3426
▁Cat	-3427
One	-3428
▁folks	-3429
rely	-3430
▁retail	-3431
▁Science	-3432
erence	-3433
abulous	-3434
▁specific	-3435
▁freezer	-3436
▁mustard	-3437
▁OR	-3438
afe	-3439
▁disgust	-3440
▁pat	-3441
inary	-3442
Ch	-3443
▁sooo	-3444
▁nutty	-3445
▁Box	-3446
▁muff	-3447
There	-3448
irm	-3449
▁People	-3450
When	-3451
▁flax	-3452
▁stool	-3453
une	-3454
LLY	-3455
cium	-3456
▁cover	-3457
ga	-3458
▁curry	-3459
▁filter	-3460
ingers	-3461
inally	-3462
▁email	-3463
▁grown	-3464
hea	-3465
▁robust	-3466
ey	-3467
▁colors	-3468
▁herbal	-3469
▁sug	-3470
▁began	-3471
olf	-3472
▁scratch	-3473
▁levels	-3474
▁missing	-3475
▁program	-3476
▁mus	-3477
istic	-3478
▁tough	-3479
▁diabetic	-3480
arched	-3481
▁abs	-3482
wards	-3483
▁x	-3484
uccess	-3485
▁stated	-3486
▁tomatoes	-3487
▁describe	-3488
ify	-3489
▁scoop	-3490
▁AN	-3491
▁sandwich	-3492
ket	-3493
ron	-3494
▁movie	-3495
▁realized	-3496
▁MY	-3497
▁placed	-3498
▁heaven	-3499
▁allergy	-3500
ares	-3501
ging	-3502
▁carr	-3503
▁miner	-3504
va	-3505
▁Earth	-3506
▁ske	-3507
▁pets	-3508
▁handy	-3509
▁yeast	-3510
▁turns	-3511
▁Pre	-3512
▁ess	-3513
▁sad	-3514
▁sense	-3515
▁tin	-3516
▁Esp	-3517
▁Sim	-3518
▁uns	-3519
▁lovely	-3520
▁event	-3521
flavored	-3522
▁tap	-3523
▁aware	-3524
▁honestly	-3525
▁odor	-3526
▁experiment	-3527
▁interested	-3528
▁Kind	-3529
▁Gluten	-3530
▁accept	-3531
▁Happy	-3532
▁gravy	-3533
▁popular	-3534
gers	-3535
0%	-3536
▁Super	-3537
▁animal	-3538
ih	-3539
▁rawh	-3540
uctose	-3541
▁benefit	-3542
▁vac	-3543
▁Enjoy	-3544
▁develop	-3545
that	-3546
ipped	-3547
asted	-3548
▁additional	-3549
▁disappointing	-3550
▁col	-3551
▁peach	-3552
▁stud	-3553
▁Peanut	-3554
EL	-3555
▁Japan	-3556
▁enh	-3557
▁becom	-3558
▁bake	-3559
idae	-3560
arden	-3561
▁drop	-3562
▁Kettle	-3563
▁apples	-3564
▁multip	-3565
▁searching	-3566
▁cran	-3567
▁birthday	-3568
▁Tim	-3569
▁young	-3570
▁prevent	-3571
▁cakes	-3572
oup	-3573
omegranate	-3574
▁enjoyable	-3575
itives	-3576
▁brewer	-3577
▁contents	-3578
rystal	-3579
▁melted	-3580
▁mas	-3581
▁vom	-3582
Now	-3583
▁dented	-3584
aturated	-3585
affe	-3586
▁raisins	-3587
arrhea	-3588
▁superior	-3589
▁flakes	-3590
igned	-3591
▁early	-3592
▁cart	-3593
▁nose	-3594
▁sweeter	-3595
▁Crunch	-3596
▁intense	-3597
▁(2	-3598
Overall	-3599
▁onion	-3600
▁companies	-3601
><	-3602
▁freshness	-3603
ges	-3604
▁1/4	-3605
▁capp	-3606
▁messy	-3607
▁Fruit	-3608
▁burnt	-3609
▁Ginger	-3610
▁signific	-3611
chips	-3612
▁busy	-3613
oring	-3614
▁holid	-3615
▁mg	-3616
▁watery	-3617
back	-3618
▁sister	-3619
izing	-3620
▁skept	-3621
▁gourmet	-3622
▁whenever	-3623
ances	-3624
UP	-3625
▁tong	-3626
▁addictive	-3627
mel	-3628
▁puff	-3629
uffalo	-3630
▁guests	-3631
hile	-3632
▁Buy	-3633
▁throwing	-3634
.4	-3635
▁GOOD	-3636
inal	-3637
▁salads	-3638
▁grounds	-3639
▁spot	-3640
Also	-3641
izes	-3642
▁Vitamin	-3643
▁discount	-3644
▁described	-3645
▁concern	-3646
▁awhile	-3647
▁pract	-3648
ential	-3649
▁overwhelming	-3650
How	-3651
▁Please	-3652
▁Ve	-3653
▁House	-3654
yond	-3655
▁fell	-3656
▁foil	-3657
▁feels	-3658
▁fragr	-3659
abies	-3660
arning	-3661
▁drops	-3662
▁worried	-3663
▁grass	-3664
▁Stevia	-3665
raw	-3666
▁Their	-3667
▁appet	-3668
▁bonus	-3669
▁NE	-3670
oxid	-3671
pleas	-3672
tually	-3673
▁gri	-3674
▁gall	-3675
▁fabulous	-3676
.)<	-3677
▁knowing	-3678
Pr	-3679
▁Thai	-3680
▁reminds	-3681
▁sus	-3682
conom	-3683
inese	-3684
▁watching	-3685
▁everywhere	-3686
arily	-3687
▁period	-3688
▁vendor	-3689
▁amounts	-3690
ney	-3691
▁Water	-3692
▁diarrhea	-3693
▁success	-3694
▁common	-3695
▁arrive	-3696
▁bill	-3697
▁thanks	-3698
▁suppose	-3699
▁spent	-3700
▁Prime	-3701
▁sugary	-3702
▁Sometimes	-3703
▁PRO	-3704
▁Oil	-3705
standing	-3706
▁Cream	-3707
even	-3708
▁staple	-3709
▁Buffalo	-3710
▁swallow	-3711
▁lim	-3712
▁17	-3713
▁Kit	-3714
▁melt	-3715
▁beer	-3716
▁Bee	-3717
▁ten	-3718
ID	-3719
▁ev	-3720
▁kitt	-3721
▁Fe	-3722
▁prot	-3723
▁AMA	-3724
▁Bought	-3725
▁pocket	-3726
enter	-3727
ams	-3728
▁spoil	-3729
▁fail	-3730
▁kern	-3731
ional	-3732
KE	-3733
othy	-3734
........	-3735
den	-3736
▁hab	-3737
▁oven	-3738
▁require	-3739
work	-3740
▁berries	-3741
▁doct	-3742
▁Lemon	-3743
▁From	-3744
▁wash	-3745
hest	-3746
▁econom	-3747
50	-3748
▁tongue	-3749
All	-3750
▁root	-3751
▁balanced	-3752
▁sugars	-3753
ls	-3754
▁peas	-3755
▁affordable	-3756
merc	-3757
esame	-3758
alap	-3759
▁relatively	-3760
.7	-3761
▁appear	-3762
▁MS	-3763
efully	-3764
opper	-3765
ishing	-3766
.50	-3767
cer	-3768
▁Ser	-3769
▁tree	-3770
▁bottled	-3771
▁gummy	-3772
▁onto	-3773
▁Whe	-3774
▁parent	-3775
▁Tur	-3776
▁enc	-3777
rs	-3778
ENT	-3779
ught	-3780
▁vegetarian	-3781
▁meth	-3782
▁Cel	-3783
▁boiling	-3784
ux	-3785
▁exam	-3786
▁earth	-3787
▁additives	-3788
eno	-3789
▁provides	-3790
▁bucks	-3791
▁truff	-3792
▁Greenies	-3793
erc	-3794
▁introduced	-3795
▁Mo	-3796
orts	-3797
arget	-3798
▁ur	-3799
▁among	-3800
▁breed	-3801
▁Sauce	-3802
▁floor	-3803
▁offers	-3804
▁poss	-3805
▁Nature	-3806
▁states	-3807
▁multiple	-3808
▁Season	-3809
ded	-3810
▁replace	-3811
bble	-3812
▁oily	-3813
.,	-3814
▁toys	-3815
hood	-3816
tes	-3817
ipton	-3818
azelnut	-3819
uke	-3820
▁waiting	-3821
▁shopping	-3822
lo	-3823
ama	-3824
err	-3825
▁skeptical	-3826
▁Donut	-3827
▁Brown	-3828
LA	-3829
asmine	-3830
▁Indian	-3831
▁checked	-3832
▁60	-3833
▁lighter	-3834
▁berry	-3835
▁reasons	-3836
herries	-3837
▁Nothing	-3838
▁unpleas	-3839
▁age	-3840
ulf	-3841
▁Lar	-3842
▁carries	-3843
▁smoothies	-3844
contin	-3845
▁commerc	-3846
▁workout	-3847
▁naturally	-3848
▁squeeze	-3849
can	-3850
omb	-3851
cohol	-3852
EE	-3853
RI	-3854
cent	-3855
▁mixture	-3856
▁Sod	-3857
ended	-3858
▁temperature	-3859
▁zip	-3860
▁Jack	-3861
▁comfort	-3862
erous	-3863
▁claims	-3864
▁Too	-3865
▁fructose	-3866
isco	-3867
su	-3868
UST	-3869
▁Cinnamon	-3870
▁elsewhere	-3871
▁Mc	-3872
▁tender	-3873
▁town	-3874
▁fried	-3875
▁attention	-3876
rees	-3877
▁Wild	-3878
pensive	-3879
oughly	-3880
▁regard	-3881
--------	-3882
▁Milk	-3883
▁starting	-3884
ounce	-3885
▁eyes	-3886
▁crumbs	-3887
▁followed	-3888
▁purse	-3889
▁growing	-3890
tion	-3891
▁MSG	-3892
ware	-3893
▁include	-3894
▁recall	-3895
▁cholesterol	-3896
ta	-3897
▁4-	-3898
▁Bob	-3899
▁increase	-3900
▁White	-3901
▁terrific	-3902
ases	-3903
▁basket	-3904
▁clearly	-3905
amomile	-3906
▁disappointment	-3907
▁throat	-3908
▁Walmart	-3909
▁coating	-3910
▁typically	-3911
▁:-	-3912
▁disgusting	-3913
uced	-3914
▁frost	-3915
▁produc	-3916
orted	-3917
▁earl	-3918
iet	-3919
▁method	-3920
rain	-3921
▁Oat	-3922
cal	-3923
ORE	-3924
▁pit	-3925
▁THAT	-3926
▁suppl	-3927
esides	-3928
▁following	-3929
rage	-3930
tered	-3931
▁gifts	-3932
▁stink	-3933
▁1.5	-3934
▁via	-3935
▁complex	-3936
▁impossible	-3937
▁shell	-3938
▁produce	-3939
▁discontin	-3940
▁conditioner	-3941
fat	-3942
hold	-3943
▁attempt	-3944
cr	-3945
zed	-3946
▁meant	-3947
▁loss	-3948
▁kitty	-3949
ows	-3950
▁fond	-3951
▁Ok	-3952
▁bat	-3953
▁harder	-3954
.8	-3955
▁remove	-3956
▁helpful	-3957
▁web	-3958
flower	-3959
▁wat	-3960
---	-3961
isingly	-3962
▁auto	-3963
▁tight	-3964
▁babies	-3965
UR	-3966
ani	-3967
▁Wow	-3968
▁EV	-3969
▁guy	-3970
▁fits	-3971
▁Having	-3972
▁fake	-3973
▁wake	-3974
▁Lipton	-3975
gin	-3976
▁la	-3977
▁HAVE	-3978
ommended	-3979
▁unpleasant	-3980
urope	-3981
▁sorry	-3982
▁originally	-3983
Not	-3984
▁Med	-3985
▁cel	-3986
▁garb	-3987
ylitol	-3988
vir	-3989
▁firm	-3990
▁ahead	-3991
▁/>3	-3992
▁Spice	-3993
▁properly	-3994
▁throughout	-3995
▁buck	-3996
▁move	-3997
▁waf	-3998
ires	-3999
oni	-4000
▁wide	-4001
▁popped	-4002
▁Canidae	-4003
▁promptly	-4004
li	-4005
alp	-4006
▁flowers	-4007
▁Fat	-4008
▁internet	-4009
On	-4010
orb	-4011
iculous	-4012
▁selection	-4013
▁Ad	-4014
▁bargain	-4015
lim	-4016
efore	-4017
PP	-4018
▁Yum	-4019
▁herbs	-4020
▁peppers	-4021
▁dise	-4022
▁Hazelnut	-4023
▁question	-4024
▁chees	-4025
urned	-4026
▁Coco	-4027
▁fres	-4028
▁ARE	-4029
▁handful	-4030
▁Mex	-4031
hentic	-4032
▁1-	-4033
▁choices	-4034
irt	-4035
ogen	-4036
AM	-4037
30	-4038
▁caps	-4039
che	-4040
▁lif	-4041
▁obviously	-4042
▁Almonds	-4043
▁Kona	-4044
▁incredibly	-4045
friend	-4046
Count	-4047
▁center	-4048
▁words	-4049
▁handle	-4050
▁cherries	-4051
▁Mill	-4052
▁rawhide	-4053
night	-4054
▁trash	-4055
tti	-4056
▁dust	-4057
▁gain	-4058
▁against	-4059
▁currently	-4060
▁LI	-4061
▁$10	-4062
▁produced	-4063
▁salsa	-4064
▁cashew	-4065
▁Cup	-4066
However	-4067
▁thicker	-4068
▁Another	-4069
ieved	-4070
▁maintain	-4071
▁unfortunately	-4072
ighb	-4073
▁moved	-4074
atable	-4075
▁finicky	-4076
ubes	-4077
pon	-4078
riginal	-4079
▁recent	-4080
▁tort	-4081
▁dates	-4082
abi	-4083
▁Emer	-4084
▁autom	-4085
▁sprinkle	-4086
▁wild	-4087
▁latte	-4088
▁hardly	-4089
▁delicate	-4090
▁outstanding	-4091
IND	-4092
assium	-4093
▁tab	-4094
▁fuss	-4095
▁bites	-4096
▁chedd	-4097
ios	-4098
▁consume	-4099
▁Give	-4100
▁funny	-4101
▁complaints	-4102
▁design	-4103
umps	-4104
▁Far	-4105
▁runs	-4106
ittle	-4107
IGH	-4108
off	-4109
▁ru	-4110
▁damaged	-4111
een	-4112
▁Bars	-4113
What	-4114
▁winner	-4115
!).	-4116
val	-4117
imately	-4118
products	-4119
▁Being	-4120
▁tangy	-4121
▁wanting	-4122
▁dough	-4123
▁blueberries	-4124
▁swe	-4125
▁pressure	-4126
▁camp	-4127
▁visit	-4128
▁nutrients	-4129
▁Let	-4130
60	-4131
▁reasonably	-4132
▁Im	-4133
▁Ter	-4134
▁Two	-4135
sweetened	-4136
▁bright	-4137
▁rot	-4138
▁rose	-4139
▁previously	-4140
▁6-	-4141
▁fry	-4142
▁pink	-4143
▁80	-4144
▁Baby	-4145
▁affect	-4146
ively	-4147
orage	-4148
▁dump	-4149
ELL	-4150
▁willing	-4151
▁hyp	-4152
▁See	-4153
▁alcohol	-4154
▁contained	-4155
aster	-4156
▁living	-4157
▁savor	-4158
▁neighb	-4159
▁cheddar	-4160
▁snacking	-4161
tures	-4162
aco	-4163
she	-4164
▁expectations	-4165
ails	-4166
▁grape	-4167
ocks	-4168
▁ANY	-4169
▁places	-4170
▁reaction	-4171
▁Magic	-4172
Am	-4173
▁fillers	-4174
▁Finally	-4175
ses	-4176
▁Look	-4177
erm	-4178
▁ann	-4179
▁Apple	-4180
ache	-4181
▁Chinese	-4182
▁Beef	-4183
▁slowly	-4184
oun	-4185
▁Gu	-4186
atin	-4187
iches	-4188
itrus	-4189
▁punch	-4190
GE	-4191
▁saved	-4192
▁reorder	-4193
aches	-4194
▁softer	-4195
▁example	-4196
▁Purina	-4197
eapple	-4198
▁Fl	-4199
▁Joe	-4200
▁stays	-4201
▁customers	-4202
▁mem	-4203
iva	-4204
ules	-4205
▁ide	-4206
▁Does	-4207
▁commercial	-4208
."<	-4209
PA	-4210
▁zero	-4211
▁diss	-4212
▁grade	-4213
▁lightly	-4214
▁lasted	-4215
!"	-4216
ada	-4217
imo	-4218
ield	-4219
▁dental	-4220
▁pen	-4221
alapeno	-4222
▁mushroom	-4223
▁acidic	-4224
▁appears	-4225
▁lovers	-4226
▁Europe	-4227
▁Marley	-4228
iding	-4229
▁serious	-4230
oms	-4231
▁crushed	-4232
amot	-4233
▁Makes	-4234
▁ans	-4235
▁men	-4236
▁mass	-4237
▁Treat	-4238
eared	-4239
▁Comp	-4240
▁Lea	-4241
▁gel	-4242
▁incredible	-4243
▁neither	-4244
▁smok	-4245
▁household	-4246
▁experienced	-4247
▁jump	-4248
▁limited	-4249
▁occasional	-4250
▁Cle	-4251
▁further	-4252
▁leaving	-4253
ointed	-4254
uice	-4255
▁eye	-4256
▁App	-4257
▁repe	-4258
▁elect	-4259
▁apparently	-4260
▁Much	-4261
▁packing	-4262
▁dollar	-4263
▁parents	-4264
ached	-4265
▁Anyway	-4266
▁garbage	-4267
icks	-4268
▁somewhere	-4269
▁De	-4270
▁prim	-4271
ational	-4272
▁returned	-4273
aghe	-4274
priced	-4275
▁step	-4276
▁adjust	-4277
▁timely	-4278
CH	-4279
▁noodle	-4280
▁cleaning	-4281
▁lived	-4282
▁mold	-4283
▁sizes	-4284
▁doz	-4285
▁cane	-4286
▁seriously	-4287
▁frequently	-4288
▁Sea	-4289
▁space	-4290
▁disease	-4291
▁delighted	-4292
RA	-4293
ores	-4294
▁occasionally	-4295
▁BU	-4296
▁bodied	-4297
itter	-4298
▁marin	-4299
▁despite	-4300
▁preference	-4301
▁shiny	-4302
▁forget	-4303
rink	-4304
sing	-4305
▁Here	-4306
▁moder	-4307
▁;	-4308
!!<	-4309
expensive	-4310
▁consistent	-4311
ua	-4312
▁deg	-4313
iliar	-4314
ICE	-4315
▁amazed	-4316
▁dissolve	-4317
▁cappuccino	-4318
▁authentic	-4319
▁searched	-4320
rid	-4321
▁Spr	-4322
iforn	-4323
▁hasn	-4324
▁steak	-4325
▁plants	-4326
▁indic	-4327
▁suc	-4328
aghetti	-4329
▁beyond	-4330
▁comparable	-4331
gular	-4332
▁shared	-4333
▁olives	-4334
▁according	-4335
▁saus	-4336
▁ridiculous	-4337
▁af	-4338
iner	-4339
▁mil	-4340
▁Corn	-4341
inoa	-4342
ecial	-4343
▁Extra	-4344
▁fully	-4345
▁cant	-4346
▁storage	-4347
▁approx	-4348
▁seeing	-4349
▁shakes	-4350
▁carrots	-4351
yc	-4352
arp	-4353
▁Wonder	-4354
▁todd	-4355
rop	-4356
▁doctor	-4357
arts	-4358
▁More	-4359
▁reduce	-4360
box	-4361
▁effort	-4362
▁sandwiches	-4363
inings	-4364
That	-4365
iot	-4366
▁resc	-4367
▁sard	-4368
▁purpose	-4369
▁stain	-4370
ifornia	-4371
▁excess	-4372
▁vir	-4373
oodle	-4374
▁drip	-4375
unity	-4376
▁Timothy	-4377
real	-4378
▁TAST	-4379
lock	-4380
▁behind	-4381
▁reseal	-4382
▁Sy	-4383
▁country	-4384
▁delightful	-4385
azza	-4386
▁active	-4387
ict	-4388
▁shows	-4389
come	-4390
▁drive	-4391
▁medicine	-4392
▁antioxid	-4393
▁malt	-4394
▁improved	-4395
▁graham	-4396
iant	-4397
▁Dogs	-4398
▁regret	-4399
▁loaded	-4400
▁sprout	-4401
▁tit	-4402
▁Never	-4403
▁WITH	-4404
▁SH	-4405
▁Squ	-4406
▁walk	-4407
cious	-4408
▁refrigerator	-4409
▁sesame	-4410
▁preferred	-4411
raft	-4412
▁fats	-4413
idered	-4414
▁Perhaps	-4415
▁YUM	-4416
▁cute	-4417
isp	-4418
▁fingers	-4419
▁considered	-4420
imals	-4421
ashion	-4422
▁caref	-4423
UCT	-4424
▁suck	-4425
▁starts	-4426
▁AL	-4427
▁conv	-4428
avazza	-4429
ustr	-4430
viron	-4431
uted	-4432
▁waffles	-4433
ism	-4434
raid	-4435
▁par	-4436
▁range	-4437
otal	-4438
▁allows	-4439
▁poured	-4440
TER	-4441
light	-4442
uaker	-4443
ech	-4444
form	-4445
▁necessary	-4446
mega	-4447
▁Decaf	-4448
milk	-4449
▁2-3	-4450
▁tablespoons	-4451
▁Chew	-4452
▁muffins	-4453
▁edible	-4454
arib	-4455
▁holds	-4456
▁Soy	-4457
OME	-4458
▁sel	-4459
▁soot	-4460
▁hide	-4461
▁Asian	-4462
lab	-4463
▁Ber	-4464
5%	-4465
▁Wolf	-4466
.3	-4467
▁gumm	-4468
lla	-4469
ribut	-4470
▁reduced	-4471
▁downside	-4472
ager	-4473
UL	-4474
▁Bal	-4475
▁caused	-4476
▁gallon	-4477
▁Better	-4478
oler	-4479
▁Many	-4480
ching	-4481
Great	-4482
mbers	-4483
▁German	-4484
▁grocer	-4485
▁cance	-4486
ergamot	-4487
organic	-4488
▁suspect	-4489
▁spray	-4490
▁brownies	-4491
▁Orange	-4492
No	-4493
▁offering	-4494
▁ONE	-4495
inning	-4496
vironment	-4497
▁carefully	-4498
>.	-4499
▁ONLY	-4500
▁Cherry	-4501
▁poop	-4502
▁stove	-4503
good	-4504
▁Who	-4505
▁2012	-4506
/2	-4507
TI	-4508
▁Mac	-4509
alent	-4510
▁anytime	-4511
▁restaurants	-4512
▁mill	-4513
▁chose	-4514
▁chopped	-4515
▁Crystal	-4516
reek	-4517
allen	-4518
▁separate	-4519
▁munch	-4520
wer	-4521
▁Had	-4522
▁cab	-4523
▁roasts	-4524
lay	-4525
▁spit	-4526
▁strongly	-4527
▁Instead	-4528
eah	-4529
▁assum	-4530
▁calcium	-4531
izz	-4532
▁kitten	-4533
UCH	-4534
▁kernels	-4535
▁Original	-4536
▁discontinued	-4537
▁forever	-4538
star	-4539
▁broke	-4540
▁afraid	-4541
ung	-4542
▁vs	-4543
umat	-4544
▁prior	-4545
AD	-4546
aki	-4547
▁charge	-4548
oses	-4549
▁goods	-4550
DUCT	-4551
▁noted	-4552
gang	-4553
aws	-4554
rom	-4555
▁minerals	-4556
▁thus	-4557
/4	-4558
▁Target	-4559
▁LOT	-4560
▁wrap	-4561
▁Trader	-4562
▁depending	-4563
▁happens	-4564
anted	-4565
▁liking	-4566
▁California	-4567
▁cider	-4568
▁orders	-4569
▁measure	-4570
▁Drink	-4571
ACK	-4572
▁kinda	-4573
▁indeed	-4574
▁unable	-4575
▁spoiled	-4576
▁Tully	-4577
▁vol	-4578
▁act	-4579
▁Puck	-4580
▁guys	-4581
▁inexpensive	-4582
▁mocha	-4583
▁Got	-4584
▁Bags	-4585
▁darker	-4586
nuts	-4587
▁Sam	-4588
▁Use	-4589
▁ele	-4590
▁saturated	-4591
▁formul	-4592
▁slices	-4593
rib	-4594
ury	-4595
▁inter	-4596
▁mellow	-4597
redients	-4598
rimp	-4599
▁dev	-4600
▁expla	-4601
▁seve	-4602
▁Did	-4603
oes	-4604
ashi	-4605
After	-4606
onna	-4607
onse	-4608
irac	-4609
▁shelves	-4610
▁environment	-4611
▁phot	-4612
bag	-4613
ogg	-4614
▁road	-4615
▁build	-4616
▁sounds	-4617
▁dense	-4618
▁deliver	-4619
▁WAS	-4620
▁jam	-4621
▁info	-4622
tasting	-4623
▁pricing	-4624
cons	-4625
▁REALLY	-4626
▁carried	-4627
▁peel	-4628
▁begin	-4629
▁strawberries	-4630
▁economical	-4631
004	-4632
▁Your	-4633
atered	-4634
ann	-4635
▁iron	-4636
▁points	-4637
▁Fuel	-4638
▁bears	-4639
▁Otherwise	-4640
▁surprisingly	-4641
may	-4642
▁Cheese	-4643
▁Potato	-4644
oh	-4645
▁meats	-4646
estr	-4647
▁Tex	-4648
▁basic	-4649
ading	-4650
▁buttery	-4651
▁Carib	-4652
▁split	-4653
▁trips	-4654
▁attract	-4655
▁AS	-4656
▁12-	-4657
▁Jet	-4658
▁contacted	-4659
▁PRODUCT	-4660
▁Farms	-4661
▁Nor	-4662
▁Salmon	-4663
▁citrus	-4664
▁challen	-4665
▁Unlike	-4666
BLE	-4667
▁dil	-4668
▁members	-4669
▁pops	-4670
▁ranc	-4671
▁concentrate	-4672
▁Get	-4673
▁trap	-4674
unches	-4675
▁wom	-4676
andy	-4677
▁brings	-4678
▁Healthy	-4679
▁solution	-4680
▁eventually	-4681
acks	-4682
▁Popchips	-4683
coli	-4684
ortment	-4685
▁noticeable	-4686
▁sampler	-4687
▁thru	-4688
▁shred	-4689
▁blender	-4690
▁ease	-4691
▁meet	-4692
▁tummy	-4693
▁appealing	-4694
▁guilt	-4695
▁Lavazza	-4696
▁wonderfully	-4697
▁Fol	-4698
utely	-4699
▁terms	-4700
▁Energy	-4701
▁rubber	-4702
▁comm	-4703
bsol	-4704
year	-4705
▁risk	-4706
▁rout	-4707
▁forg	-4708
▁powd	-4709
▁unus	-4710
▁mushy	-4711
▁create	-4712
▁reward	-4713
▁strips	-4714
▁Twinings	-4715
▁Wonderful	-4716
▁switching	-4717
Well	-4718
▁factor	-4719
▁animals	-4720
ba	-4721
▁topping	-4722
turi	-4723
▁tasteless	-4724
min	-4725
uis	-4726
▁Before	-4727
▁Japanese	-4728
▁THEY	-4729
▁spaghetti	-4730
ested	-4731
▁Bean	-4732
002	-4733
▁Wish	-4734
▁ident	-4735
law	-4736
▁York	-4737
▁bath	-4738
▁kill	-4739
ralose	-4740
▁Made	-4741
▁Need	-4742
▁sunflower	-4743
▁brews	-4744
▁sliced	-4745
terday	-4746
weight	-4747
▁title	-4748
▁vary	-4749
▁cubes	-4750
▁moisture	-4751
▁improvement	-4752
▁1/3	-4753
▁CA	-4754
OUS	-4755
▁mat	-4756
▁crap	-4757
occoli	-4758
aterial	-4759
ioc	-4760
▁Sumat	-4761
▁percent	-4762
oooo	-4763
Amazon	-4764
▁shouldn	-4765
sm	-4766
▁sharp	-4767
▁support	-4768
▁constantly	-4769
awai	-4770
olog	-4771
▁6)</	-4772
inach	-4773
▁harm	-4774
▁hurt	-4775
▁curi	-4776
▁dang	-4777
▁fancy	-4778
▁trade	-4779
▁freshly	-4780
seed	-4781
Thank	-4782
▁carbo	-4783
itch	-4784
ists	-4785
▁fault	-4786
▁frosting	-4787
▁pec	-4788
▁pol	-4789
▁page	-4790
▁onions	-4791
ila	-4792
▁ver	-4793
asses	-4794
▁tends	-4795
ersonally	-4796
ANT	-4797
.6	-4798
▁fac	-4799
▁imm	-4800
▁diagn	-4801
▁bri	-4802
▁self	-4803
amela	-4804
▁talking	-4805
▁smoked	-4806
▁oh	-4807
▁His	-4808
▁thor	-4809
▁/>"	-4810
▁lives	-4811
▁Emeril	-4812
▁veggie	-4813
rawberry	-4814
nder	-4815
▁fluff	-4816
▁marsh	-4817
olesome	-4818
oud	-4819
inds	-4820
▁thinks	-4821
▁Oatmeal	-4822
▁helping	-4823
▁Low	-4824
▁limit	-4825
▁savings	-4826
▁discover	-4827
oves	-4828
▁lol	-4829
▁Premium	-4830
▁sardines	-4831
▁decide	-4832
▁watered	-4833
▁smoothie	-4834
ises	-4835
pric	-4836
▁rarely	-4837
▁carbonated	-4838
▁35	-4839
▁Yummy	-4840
▁exerc	-4841
▁gen	-4842
▁salted	-4843
▁response	-4844
▁golden	-4845
▁$6	-4846
▁MUCH	-4847
▁wood	-4848
▁scalp	-4849
▁recommendation	-4850
dog	-4851
▁Sun	-4852
ously	-4853
▁suit	-4854
▁(3	-4855
▁Con	-4856
▁grit	-4857
icient	-4858
▁grinder	-4859
▁writing	-4860
▁caught	-4861
▁familiar	-4862
▁manner	-4863
>,	-4864
Un	-4865
▁Dry	-4866
▁fool	-4867
mallow	-4868
▁sodas	-4869
▁desk	-4870
▁Hawai	-4871
▁earlier	-4872
▁carbohydr	-4873
▁react	-4874
▁biggest	-4875
▁brother	-4876
▁San	-4877
RY	-4878
▁ends	-4879
▁WOW	-4880
▁nam	-4881
aging	-4882
oying	-4883
▁scra	-4884
azo	-4885
urry	-4886
▁God	-4887
▁indul	-4888
balls	-4889
osher	-4890
erves	-4891
▁Price	-4892
▁juices	-4893
arter	-4894
▁FRE	-4895
▁tre	-4896
rived	-4897
▁gobb	-4898
▁rock	-4899
arkets	-4900
▁notes	-4901
▁pineapple	-4902
▁BUY	-4903
▁complain	-4904
rd	-4905
▁wont	-4906
unt	-4907
▁BPA	-4908
▁material	-4909
▁initially	-4910
▁MI	-4911
▁Man	-4912
▁Wolfgang	-4913
To	-4914
ihu	-4915
▁hemp	-4916
▁palate	-4917
▁Oreo	-4918
▁equal	-4919
▁faster	-4920
oice	-4921
ands	-4922
▁mood	-4923
▁rated	-4924
▁intended	-4925
▁definately	-4926
now	-4927
ude	-4928
Just	-4929
ision	-4930
▁remaining	-4931
▁assortment	-4932
OL	-4933
▁parts	-4934
▁tortilla	-4935
▁receiving	-4936
mmmm	-4937
▁rip	-4938
umble	-4939
▁coats	-4940
▁stools	-4941
especially	-4942
ibos	-4943
▁misle	-4944
verages	-4945
▁cravings	-4946
men	-4947
irty	-4948
▁Boxes	-4949
▁hoped	-4950
▁stress	-4951
imate	-4952
▁chewed	-4953
▁damage	-4954
▁Espresso	-4955
▁cow	-4956
▁hadn	-4957
▁Tried	-4958
▁Market	-4959
▁shocked	-4960
▁50%	-4961
▁Weight	-4962
▁drinkers	-4963
partame	-4964
▁Wheat	-4965
▁hopes	-4966
▁consistently	-4967
▁agave	-4968
▁moment	-4969
▁CAN	-4970
▁Though	-4971
▁labeled	-4972
ege	-4973
ihuah	-4974
▁dozen	-4975
▁NEVER	-4976
▁chamomile	-4977
BS	-4978
▁balls	-4979
▁fudge	-4980
▁learn	-4981
▁sticking	-4982
ean	-4983
olong	-4984
▁becomes	-4985
▁beware	-4986
-1	-4987
orie	-4988
▁answer	-4989
▁/>4	-4990
▁hear	-4991
▁below	-4992
ado	-4993
▁bowls	-4994
▁Cookies	-4995
▁comments	-4996
etch	-4997
bsolutely	-4998
▁syrups	-4999
owder	-5000
iable	-5001
▁grill	-5002
gie	-5003
▁sniff	-5004
▁aromatic	-5005
VOR	-5006
zing	-5007
▁rancid	-5008
▁sausage	-5009
▁provided	-5010
anas	-5011
▁tempt	-5012
▁overpriced	-5013
▁2011	-5014
▁High	-5015
▁Next	-5016
▁required	-5017
▁Lab	-5018
▁gums	-5019
▁saves	-5020
▁labels	-5021
▁reach	-5022
?!	-5023
▁Shop	-5024
▁happier	-5025
▁Li	-5026
flavor	-5027
▁prescri	-5028
eal	-5029
▁shown	-5030
▁quantities	-5031
▁beats	-5032
▁intoler	-5033
▁prefers	-5034
▁Kraft	-5035
▁combo	-5036
▁plate	-5037
▁classic	-5038
▁pockets	-5039
▁print	-5040
▁weather	-5041
▁possibly	-5042
rema	-5043
▁causes	-5044
roly	-5045
▁Ess	-5046
▁Turkey	-5047
▁:-)	-5048
▁bla	-5049
▁happily	-5050
▁hearty	-5051
▁missed	-5052
▁pud	-5053
▁Brand	-5054
▁thrown	-5055
▁developed	-5056
▁leg	-5057
▁ratio	-5058
▁Mom	-5059
▁cabin	-5060
▁pomegranate	-5061
▁enter	-5062
▁includes	-5063
ERE	-5064
after	-5065
▁slice	-5066
arehouse	-5067
elow	-5068
......	-5069
003	-5070
▁opposed	-5071
▁45	-5072
ital	-5073
▁changes	-5074
▁guar	-5075
ggy	-5076
sugar	-5077
▁Cafe	-5078
▁elim	-5079
▁adults	-5080
estial	-5081
▁Bell	-5082
▁Pamela	-5083
xic	-5084
▁tons	-5085
▁smoke	-5086
Green	-5087
ao	-5088
▁guilty	-5089
▁owners	-5090
▁Gourmet	-5091
▁Max	-5092
▁Link	-5093
▁THEM	-5094
▁beverages	-5095
inse	-5096
▁eight	-5097
▁fort	-5098
rif	-5099
▁mol	-5100
▁Bull	-5101
▁wond	-5102
▁dipping	-5103
▁cancer	-5104
▁diabetes	-5105
ogenated	-5106
▁wrapper	-5107
Don	-5108
▁Sure	-5109
▁qual	-5110
▁alternatives	-5111
MM	-5112
▁popper	-5113
▁kitties	-5114
▁neighbor	-5115
▁pleasure	-5116
ils	-5117
elve	-5118
▁expl	-5119
▁muscle	-5120
mic	-5121
▁story	-5122
pdate	-5123
▁ideal	-5124
▁pregn	-5125
▁Caribou	-5126
▁Could	-5127
▁filler	-5128
hey	-5129
!!!!!	-5130
▁Shipping	-5131
ulp	-5132
▁mot	-5133
▁tu	-5134
▁flu	-5135
▁dose	-5136
▁crumbly	-5137
▁PL	-5138
▁Double	-5139
▁ut	-5140
cook	-5141
ille	-5142
▁Jerky	-5143
▁sympt	-5144
▁cashews	-5145
▁fashion	-5146
▁bubble	-5147
▁Bas	-5148
▁combined	-5149
▁consumption	-5150
bout	-5151
▁rolls	-5152
ction	-5153
▁moisturi	-5154
▁resealable	-5155
imum	-5156
▁ric	-5157
▁Fresh	-5158
▁cock	-5159
Highly	-5160
▁dehydr	-5161
▁supermarkets	-5162
▁Keep	-5163
arkling	-5164
▁toddler	-5165
▁Balance	-5166
ounds	-5167
▁dispens	-5168
▁supplements	-5169
based	-5170
▁KIND	-5171
DATE	-5172
▁tad	-5173
▁Protein	-5174
▁Raspberry	-5175
econd	-5176
olved	-5177
sized	-5178
▁showed	-5179
▁protect	-5180
▁accident	-5181
▁smelling	-5182
▁therefore	-5183
▁crit	-5184
▁update	-5185
▁saf	-5186
▁Mango	-5187
chers	-5188
ropri	-5189
▁inch	-5190
▁somehow	-5191
▁warning	-5192
lbs	-5193
▁till	-5194
▁pinch	-5195
▁tear	-5196
kend	-5197
▁tub	-5198
Thanks	-5199
▁Syrup	-5200
▁mints	-5201
▁mainly	-5202
▁childhood	-5203
mps	-5204
▁track	-5205
▁Treats	-5206
▁yesterday	-5207
▁Cocoa	-5208
▁cupboard	-5209
▁$7	-5210
▁Ph	-5211
▁instantly	-5212
.25	-5213
▁Fiber	-5214
ode	-5215
orse	-5216
pher	-5217
▁assume	-5218
,,	-5219
▁EVERY	-5220
▁blended	-5221
%<	-5222
▁3.5	-5223
▁Chili	-5224
▁grainy	-5225
▁thoroughly	-5226
▁removed	-5227
reed	-5228
▁college	-5229
▁adop	-5230
▁Golden	-5231
▁refused	-5232
▁Absolutely	-5233
▁marshmallow	-5234
IVE	-5235
▁Aw	-5236
▁lamb	-5237
▁friendly	-5238
▁digestion	-5239
▁Special	-5240
▁acceptable	-5241
mi	-5242
uth	-5243
▁12)</	-5244
▁detect	-5245
▁Ne	-5246
!!!<	-5247
Or	-5248
ooth	-5249
oyal	-5250
▁div	-5251
▁cupc	-5252
▁spending	-5253
IR	-5254
▁quit	-5255
▁slim	-5256
▁Feast	-5257
▁unsweetened	-5258
▁versions	-5259
alted	-5260
▁spoonful	-5261
▁Pure	-5262
▁soothing	-5263
uum	-5264
▁BO	-5265
▁wasabi	-5266
hip	-5267
▁consumed	-5268
oco	-5269
ushi	-5270
▁hesitant	-5271
▁didnt	-5272
▁starch	-5273
sc	-5274
▁holiday	-5275
fish	-5276
▁Brewers	-5277
▁requires	-5278
▁lacking	-5279
▁Spicy	-5280
▁Lime	-5281
▁bull	-5282
▁feet	-5283
▁closest	-5284
▁highest	-5285
He	-5286
amic	-5287
▁gluc	-5288
▁shame	-5289
▁Tazo	-5290
▁THESE	-5291
▁layer	-5292
▁replaced	-5293
'.	-5294
▁FR	-5295
▁Has	-5296
regular	-5297
▁boys	-5298
Any	-5299
EAR	-5300
oci	-5301
thrit	-5302
▁misleading	-5303
iracle	-5304
▁chain	-5305
▁spring	-5306
▁weekend	-5307
▁boyfriend	-5308
▁marketing	-5309
An	-5310
▁Italy	-5311
US	-5312
▁cryst	-5313
▁quinoa	-5314
▁wrote	-5315
▁u	-5316
▁link	-5317
▁garden	-5318
▁truffle	-5319
▁designed	-5320
bec	-5321
Since	-5322
ength	-5323
▁lemonade	-5324
ief	-5325
▁blo	-5326
▁lad	-5327
▁Cont	-5328
▁calls	-5329
▁appetite	-5330
?)	-5331
▁Ir	-5332
▁Lo	-5333
▁wise	-5334
▁Mexican	-5335
lers	-5336
▁rescue	-5337
▁32	-5338
ubby	-5339
acter	-5340
▁allowed	-5341
▁symptoms	-5342
▁Bel	-5343
▁duck	-5344
▁kettle	-5345
▁consuming	-5346
ims	-5347
▁increased	-5348
ito	-5349
▁automatic	-5350
quality	-5351
▁portions	-5352
▁fer	-5353
ottom	-5354
▁dead	-5355
▁rinse	-5356
▁shrimp	-5357
ser	-5358
▁owner	-5359
".<	-5360
ara	-5361
ava	-5362
▁Cuis	-5363
▁soak	-5364
▁dietary	-5365
▁monthly	-5366
▁fragrance	-5367
▁containing	-5368
▁WAY	-5369
▁appeal	-5370
▁infect	-5371
▁WILL	-5372
about	-5373
melon	-5374
▁/>(	-5375
▁England	-5376
▁ble	-5377
▁pron	-5378
▁machines	-5379
▁Usually	-5380
ivity	-5381
ycle	-5382
rition	-5383
▁puree	-5384
▁cola	-5385
▁hass	-5386
▁forgot	-5387
▁broccoli	-5388
oral	-5389
▁gly	-5390
▁fussy	-5391
▁hated	-5392
▁significantly	-5393
dden	-5394
▁loving	-5395
▁Berry	-5396
ipe	-5397
loria	-5398
▁loaf	-5399
▁destr	-5400
▁lucky	-5401
.1	-5402
lets	-5403
▁Amaz	-5404
ground	-5405
▁wholesome	-5406
mart	-5407
▁LOVED	-5408
▁asking	-5409
pot	-5410
eless	-5411
▁Chip	-5412
asco	-5413
▁harsh	-5414
▁90	-5415
▁mornings	-5416
ene	-5417
▁puffs	-5418
IA	-5419
▁stored	-5420
arv	-5421
ening	-5422
▁Jama	-5423
▁wasted	-5424
▁potassium	-5425
▁Luck	-5426
▁batches	-5427
▁constip	-5428
▁stocking	-5429
▁diagnosed	-5430
▁Recommended	-5431
▁approximately	-5432
▁Ver	-5433
ental	-5434
▁nature	-5435
▁tolerate	-5436
▁Plan	-5437
▁stew	-5438
▁stur	-5439
▁palatable	-5440
Good	-5441
▁Kashi	-5442
▁equiv	-5443
▁AW	-5444
▁vomiting	-5445
▁Kr	-5446
▁Ann	-5447
▁closer	-5448
iw	-5449
ais	-5450
▁70	-5451
ushing	-5452
▁Te	-5453
▁Mint	-5454
▁Pret	-5455
▁Caramel	-5456
▁jasmine	-5457
▁mushrooms	-5458
urger	-5459
▁thirst	-5460
▁seafood	-5461
▁savory	-5462
▁initial	-5463
▁Leaf	-5464
▁hunger	-5465
▁:(	-5466
▁frustr	-5467
▁essential	-5468
▁anx	-5469
▁sett	-5470
▁EN	-5471
▁tsp	-5472
▁sched	-5473
▁traveling	-5474
bl	-5475
vies	-5476
▁certified	-5477
comp	-5478
▁GMO	-5479
▁bananas	-5480
HA	-5481
top	-5482
▁hole	-5483
▁Day	-5484
anero	-5485
treat	-5486
usters	-5487
▁prime	-5488
fu	-5489
ONE	-5490
▁$20	-5491
alley	-5492
gy	-5493
▁weigh	-5494
▁pancake	-5495
▁Strawberry	-5496
▁herb	-5497
▁South	-5498
▁tins	-5499
▁encou	-5500
▁wondering	-5501
KS	-5502
wheat	-5503
▁advice	-5504
▁toasted	-5505
▁DEL	-5506
▁ult	-5507
▁pest	-5508
▁obs	-5509
▁overnight	-5510
▁hits	-5511
▁antioxidants	-5512
▁soggy	-5513
▁hassle	-5514
nces	-5515
▁enth	-5516
▁greatly	-5517
▁ME	-5518
▁severe	-5519
although	-5520
down	-5521
▁acqu	-5522
▁pleasing	-5523
▁transition	-5524
umi	-5525
carb	-5526
mbered	-5527
▁Fancy	-5528
etchup	-5529
▁dad	-5530
▁Ah	-5531
ruit	-5532
▁:)<	-5533
▁sore	-5534
avender	-5535
▁versat	-5536
▁Vinegar	-5537
▁Hers	-5538
▁fishy	-5539
▁organ	-5540
▁sources	-5541
▁Bra	-5542
▁habit	-5543
oey	-5544
▁energ	-5545
▁sweets	-5546
assimo	-5547
OULD	-5548
green	-5549
▁eaters	-5550
▁expert	-5551
▁cutting	-5552
▁SU	-5553
▁ramen	-5554
▁celiac	-5555
ear	-5556
▁est	-5557
▁Those	-5558
▁silk	-5559
▁Health	-5560
▁48	-5561
▁kidney	-5562
aint	-5563
▁photo	-5564
▁milder	-5565
▁Ol	-5566
▁makers	-5567
▁gag	-5568
▁grap	-5569
▁wind	-5570
bags	-5571
▁emerg	-5572
▁superb	-5573
▁expired	-5574
▁reminded	-5575
▁RE	-5576
▁die	-5577
odium	-5578
▁bran	-5579
▁sudden	-5580
▁remembered	-5581
some	-5582
water	-5583
▁Make	-5584
▁Which	-5585
▁refrigerated	-5586
Mart	-5587
▁Purch	-5588
▁production	-5589
▁drain	-5590
▁chewer	-5591
▁invest	-5592
ji	-5593
ony	-5594
▁grilled	-5595
▁lunches	-5596
▁cheapest	-5597
▁specifically	-5598
"<	-5599
40	-5600
ogi	-5601
▁bud	-5602
amples	-5603
▁boring	-5604
▁spinach	-5605
EAL	-5606
ram	-5607
▁LIKE	-5608
▁Mini	-5609
▁cranberry	-5610
▁crave	-5611
▁breads	-5612
▁colored	-5613
▁Seriously	-5614
▁equivalent	-5615
Re	-5616
▁Out	-5617
inate	-5618
▁Again	-5619
▁America	-5620
▁beginning	-5621
gl	-5622
from	-5623
▁cranberries	-5624
▁thats	-5625
▁rolled	-5626
▁unhealthy	-5627
▁$8	-5628
enior	-5629
▁Hard	-5630
ariety	-5631
▁coloring	-5632
iy	-5633
▁Brit	-5634
▁subject	-5635
▁Bag	-5636
▁decad	-5637
▁readily	-5638
▁finger	-5639
▁entirely	-5640
▁fle	-5641
▁3-4	-5642
ember	-5643
opefully	-5644
▁resid	-5645
olistic	-5646
▁Personally	-5647
▁..	-5648
▁equally	-5649
▁Mel	-5650
▁fight	-5651
▁useful	-5652
!!!!!!!!	-5653
▁yr	-5654
▁teen	-5655
illing	-5656
▁bergamot	-5657
DER	-5658
isse	-5659
gging	-5660
oll	-5661
uses	-5662
▁Sorry	-5663
▁cooks	-5664
▁significant	-5665
zzle	-5666
▁FLA	-5667
▁Mon	-5668
▁Coke	-5669
ulated	-5670
ald	-5671
▁sturdy	-5672
▁dem	-5673
▁melts	-5674
▁Intern	-5675
▁Lat	-5676
▁batter	-5677
▁fresher	-5678
Cons	-5679
oking	-5680
▁Form	-5681
pherd	-5682
apointed	-5683
ION	-5684
por	-5685
▁guarant	-5686
▁opt	-5687
eived	-5688
bodied	-5689
▁soap	-5690
▁clump	-5691
cooked	-5692
▁sending	-5693
ibb	-5694
▁gooey	-5695
▁concept	-5696
▁molasses	-5697
▁Celestial	-5698
▁specialty	-5699
▁Cats	-5700
▁vacation	-5701
aled	-5702
verse	-5703
OP	-5704
She	-5705
illy	-5706
▁Mich	-5707
▁wall	-5708
▁cough	-5709
▁resist	-5710
▁vacuum	-5711
▁manufacturers	-5712
▁Gloria	-5713
▁Bigelow	-5714
▁standards	-5715
At	-5716
▁Dav	-5717
▁consumer	-5718
▁holidays	-5719
Here	-5720
ectar	-5721
eline	-5722
▁Soup	-5723
▁rins	-5724
▁fluffy	-5725
▁shredded	-5726
nip	-5727
▁cell	-5728
▁desired	-5729
▁sprinkled	-5730
.0	-5731
GH	-5732
???	-5733
eru	-5734
▁breaking	-5735
▁Wat	-5736
uri	-5737
▁grey	-5738
▁compl	-5739
▁penny	-5740
otle	-5741
▁Kell	-5742
▁cred	-5743
▁fries	-5744
entially	-5745
▁distribut	-5746
▁wed	-5747
▁gritty	-5748
jen	-5749
▁Ordered	-5750
▁promised	-5751
▁electroly	-5752
▁Over	-5753
▁Dun	-5754
▁ign	-5755
▁Popcorn	-5756
ha	-5757
ERF	-5758
nger	-5759
ropriate	-5760
▁theater	-5761
llip	-5762
entia	-5763
opical	-5764
▁cabinet	-5765
▁canister	-5766
▁Everything	-5767
IOUS	-5768
otic	-5769
▁burst	-5770
▁pudding	-5771
▁section	-5772
usi	-5773
adam	-5774
iger	-5775
ster	-5776
CE	-5777
ashed	-5778
owing	-5779
▁news	-5780
Update	-5781
▁aside	-5782
▁created	-5783
amine	-5784
▁held	-5785
▁About	-5786
▁Irish	-5787
▁drawer	-5788
hot	-5789
▁Oz	-5790
▁stands	-5791
▁station	-5792
acao	-5793
▁popping	-5794
▁unusual	-5795
ESS	-5796
iscus	-5797
▁curious	-5798
▁younger	-5799
▁MA	-5800
▁2.5	-5801
▁unit	-5802
▁catch	-5803
▁intact	-5804
▁minimal	-5805
▁wow	-5806
▁grad	-5807
▁runny	-5808
▁Buying	-5809
▁moving	-5810
▁brownie	-5811
▁cross	-5812
▁numerous	-5813
▁medication	-5814
En	-5815
▁fans	-5816
▁stocked	-5817
▁substant	-5818
who	-5819
esan	-5820
▁Hershey	-5821
▁delivers	-5822
ville	-5823
▁THAN	-5824
▁sweetner	-5825
port	-5826
▁pair	-5827
istach	-5828
▁Peach	-5829
▁secret	-5830
▁drawback	-5831
▁tray	-5832
▁tested	-5833
▁adopted	-5834
▁situ	-5835
ihuahua	-5836
▁refined	-5837
▁girls	-5838
▁entertain	-5839
▁seasonings	-5840
▁key	-5841
using	-5842
▁associ	-5843
▁Le	-5844
▁Juice	-5845
Very	-5846
With	-5847
bean	-5848
▁rare	-5849
▁enthusi	-5850
13	-5851
▁IF	-5852
▁Vet	-5853
▁jalapeno	-5854
▁edge	-5855
▁diets	-5856
▁fills	-5857
▁xylitol	-5858
▁3/4	-5859
▁MORE	-5860
▁Mocha	-5861
▁warehouse	-5862
UPDATE	-5863
▁recyc	-5864
▁caution	-5865
▁supplier	-5866
▁8-	-5867
many	-5868
▁ast	-5869
▁Pill	-5870
▁Jelly	-5871
umin	-5872
▁pub	-5873
While	-5874
▁cramps	-5875
▁promot	-5876
▁written	-5877
▁losing	-5878
▁Sumatra	-5879
▁routine	-5880
▁produces	-5881
▁recieved	-5882
▁meds	-5883
▁Larab	-5884
▁icing	-5885
ITE	-5886
armesan	-5887
affeinated	-5888
▁aspartame	-5889
pet	-5890
▁ens	-5891
▁Works	-5892
ibiscus	-5893
▁skim	-5894
bel	-5895
▁Cons	-5896
▁Vine	-5897
▁speak	-5898
▁floral	-5899
▁Folgers	-5900
▁Tassimo	-5901
▁flavorings	-5902
too	-5903
▁Read	-5904
▁Texas	-5905
▁respons	-5906
▁relaxing	-5907
▁father	-5908
▁destroy	-5909
ogle	-5910
▁hydrogenated	-5911
▁hesitate	-5912
oph	-5913
rab	-5914
▁AT	-5915
▁joint	-5916
▁Valley	-5917
▁richer	-5918
▁samples	-5919
-3	-5920
Cal	-5921
uds	-5922
▁Numi	-5923
umpkin	-5924
hh	-5925
▁Boy	-5926
iotics	-5927
▁addicting	-5928
▁Seasonings	-5929
▁compliment	-5930
▁pap	-5931
▁sucralose	-5932
▁exclus	-5933
▁sounded	-5934
▁Ass	-5935
▁coated	-5936
▁carbonation	-5937
IL	-5938
▁Ori	-5939
▁foc	-5940
atcha	-5941
▁World	-5942
▁lately	-5943
▁becoming	-5944
uy	-5945
icle	-5946
▁earthy	-5947
pies	-5948
rier	-5949
▁passed	-5950
▁versatile	-5951
▁darn	-5952
▁fatty	-5953
▁advant	-5954
▁Formula	-5955
vi	-5956
▁absor	-5957
▁dislike	-5958
▁NY	-5959
icial	-5960
▁COFF	-5961
▁Pock	-5962
▁cous	-5963
▁sof	-5964
▁tax	-5965
▁aspect	-5966
▁volume	-5967
▁/>5	-5968
▁warn	-5969
▁generous	-5970
▁SP	-5971
weed	-5972
▁RDA	-5973
▁waters	-5974
▁SA	-5975
bing	-5976
▁dur	-5977
▁Simply	-5978
▁walnuts	-5979
TW	-5980
oured	-5981
▁Flor	-5982
▁Gran	-5983
▁letting	-5984
aty	-5985
▁pH	-5986
eruva	-5987
▁gram	-5988
▁rope	-5989
wo	-5990
▁sides	-5991
uk	-5992
▁wax	-5993
▁sushi	-5994
▁shower	-5995
▁exercise	-5996
idence	-5997
▁fragrant	-5998
mo	-5999
dar	-6000
▁pretzel	-6001
▁Probably	-6002
enn	-6003
ruff	-6004
▁whim	-6005
▁eager	-6006
▁/>2.	-6007
▁decre	-6008
▁traps	-6009
▁Nutiva	-6010
▁consumers	-6011
▁fly	-6012
▁chal	-6013
▁ears	-6014
▁carton	-6015
▁Blueberry	-6016
▁22	-6017
▁Sad	-6018
▁Capp	-6019
▁irrit	-6020
▁Bea	-6021
iyaki	-6022
▁smoky	-6023
▁sales	-6024
▁smoother	-6025
low	-6026
▁La	-6027
feed	-6028
entle	-6029
▁whatso	-6030
IE	-6031
▁Tab	-6032
aribo	-6033
▁28	-6034
▁36	-6035
▁strugg	-6036
▁respond	-6037
▁Organics	-6038
▁male	-6039
▁decor	-6040
▁ketchup	-6041
▁fire	-6042
▁shel	-6043
▁Count	-6044
▁Actually	-6045
▁powerful	-6046
ems	-6047
▁toxic	-6048
▁doesnt	-6049
▁character	-6050
esc	-6051
atures	-6052
▁TASTE	-6053
▁brush	-6054
uv	-6055
son	-6056
▁pig	-6057
▁puts	-6058
▁Variety	-6059
▁Essentia	-6060
▁challenge	-6061
oug	-6062
▁Sk	-6063
ressed	-6064
▁metal	-6065
▁multi	-6066
▁barley	-6067
▁screw	-6068
▁drinkable	-6069
▁Beans	-6070
▁memories	-6071
▁oc	-6072
▁Tuna	-6073
▁Celiac	-6074
▁Gh	-6075
▁inh	-6076
▁inches	-6077
▁Hope	-6078
coffee	-6079
▁dehydrated	-6080
▁whatsoever	-6081
▁FDA	-6082
dried	-6083
▁cupcakes	-6084
▁Bay	-6085
▁Nest	-6086
▁Gerber	-6087
▁squares	-6088
▁hopefully	-6089
▁$9	-6090
▁Fast	-6091
espite	-6092
▁pulled	-6093
▁Pie	-6094
▁snap	-6095
▁spic	-6096
isseur	-6097
ards	-6098
great	-6099
▁JUST	-6100
▁Last	-6101
▁whey	-6102
▁concentrated	-6103
▁10-	-6104
▁lact	-6105
▁degrees	-6106
OC	-6107
▁REC	-6108
cemic	-6109
▁Slim	-6110
▁lollip	-6111
▁account	-6112
▁listing	-6113
gon	-6114
▁Ever	-6115
▁paws	-6116
▁apric	-6117
ormally	-6118
▁Switch	-6119
▁prepar	-6120
ett	-6121
oul	-6122
▁cul	-6123
▁Tasty	-6124
mes	-6125
▁(4	-6126
▁McC	-6127
▁/>1.	-6128
▁fewer	-6129
▁COFFEE	-6130
riever	-6131
▁minor	-6132
▁portable	-6133
isters	-6134
▁miles	-6135
▁shaped	-6136
▁heated	-6137
▁dream	-6138
▁Honest	-6139
Free	-6140
when	-6141
▁24-	-6142
▁Life	-6143
▁21	-6144
▁besides	-6145
▁generic	-6146
▁obvious	-6147
▁accur	-6148
▁purchases	-6149
▁finishing	-6150
▁teaspoons	-6151
ateg	-6152
▁warned	-6153
▁Amazing	-6154
▁vi	-6155
▁cir	-6156
ellow	-6157
▁semi	-6158
▁steel	-6159
▁Canada	-6160
▁importantly	-6161
▁err	-6162
▁closed	-6163
▁dropped	-6164
▁lasting	-6165
▁tip	-6166
▁yum	-6167
anana	-6168
▁posted	-6169
▁raised	-6170
▁Kitchen	-6171
▁continued	-6172
ogn	-6173
THING	-6174
▁snob	-6175
▁saver	-6176
▁Choice	-6177
▁access	-6178
Rec	-6179
overs	-6180
umbled	-6181
▁pictured	-6182
artment	-6183
▁Bo	-6184
▁burned	-6185
aroni	-6186
efruit	-6187
▁India	-6188
▁Latte	-6189
bviously	-6190
▁appreciated	-6191
calorie	-6192
noisseur	-6193
urr	-6194
▁Grain	-6195
ankly	-6196
▁rave	-6197
▁splend	-6198
▁Awesome	-6199
▁bear	-6200
▁Caffe	-6201
▁trail	-6202
▁arrives	-6203
▁crumble	-6204
▁Tom	-6205
eable	-6206
▁opport	-6207
▁playing	-6208
▁stinky	-6209
▁bowel	-6210
▁suggestion	-6211
ca	-6212
chi	-6213
▁Glad	-6214
armint	-6215
▁group	-6216
▁humm	-6217
▁Olive	-6218
▁coupon	-6219
▁Especially	-6220
▁chocolatey	-6221
itric	-6222
▁marinade	-6223
▁beautifully	-6224
Oh	-6225
cing	-6226
▁Order	-6227
▁States	-6228
▁tossed	-6229
▁pear	-6230
▁acidity	-6231
▁Jean	-6232
▁FLAVOR	-6233
atically	-6234
rel	-6235
round	-6236
▁Mother	-6237
vo	-6238
there	-6239
▁apply	-6240
▁licking	-6241
only	-6242
▁yard	-6243
▁intest	-6244
▁death	-6245
usion	-6246
most	-6247
▁Franc	-6248
▁processing	-6249
icip	-6250
▁sil	-6251
because	-6252
lasting	-6253
▁soften	-6254
▁crystals	-6255
/3	-6256
UN	-6257
ILL	-6258
maybe	-6259
▁formulas	-6260
echn	-6261
▁twist	-6262
▁sampled	-6263
▁testing	-6264
AIN	-6265
ONG	-6266
iwi	-6267
▁speed	-6268
▁report	-6269
▁dangerous	-6270
First	-6271
▁commit	-6272
ym	-6273
▁recogn	-6274
omin	-6275
▁member	-6276
▁Dis	-6277
▁creme	-6278
earmint	-6279
▁smokey	-6280
▁pouring	-6281
▁)	-6282
equ	-6283
ability	-6284
erios	-6285
▁Check	-6286
▁Received	-6287
▁UPS	-6288
▁drug	-6289
outher	-6290
▁repeat	-6291
▁practically	-6292
▁WOR	-6293
▁Annie	-6294
▁humans	-6295
▁Raw	-6296
▁tofu	-6297
▁seasoned	-6298
▁2010	-6299
▁substance	-6300
andruff	-6301
▁holding	-6302
▁residue	-6303
▁donut	-6304
▁calm	-6305
▁Think	-6306
ilt	-6307
osph	-6308
▁LOL	-6309
▁Put	-6310
▁sac	-6311
▁foam	-6312
▁satisfies	-6313
▁connoisseur	-6314
heddar	-6315
▁Royal	-6316
itionally	-6317
▁dressings	-6318
▁afterwards	-6319
bly	-6320
▁steaks	-6321
AG	-6322
full	-6323
urch	-6324
▁square	-6325
▁Sch	-6326
▁Maple	-6327
▁camping	-6328
▁healthful	-6329
▁exceptional	-6330
▁AD	-6331
brew	-6332
ivers	-6333
▁Pomegranate	-6334
eta	-6335
akery	-6336
▁Worth	-6337
▁pitcher	-6338
zu	-6339
adamia	-6340
▁Class	-6341
▁Powder	-6342
▁greens	-6343
▁managed	-6344
IM	-6345
▁($	-6346
luding	-6347
▁smart	-6348
month	-6349
▁puppies	-6350
/20	-6351
▁heck	-6352
▁surf	-6353
▁Maxwell	-6354
ugh	-6355
▁insp	-6356
▁Dunkin	-6357
▁waffle	-6358
▁Hopefully	-6359
edible	-6360
▁brain	-6361
▁shops	-6362
▁Needless	-6363
▁$25	-6364
▁changing	-6365
di	-6366
unn	-6367
ocery	-6368
▁EVER	-6369
▁Candy	-6370
▁stash	-6371
▁Jasmine	-6372
▁amazingly	-6373
▁TOO	-6374
▁mer	-6375
▁nur	-6376
▁lent	-6377
▁suffer	-6378
▁decision	-6379
▁definite	-6380
▁starbucks	-6381
Our	-6382
Note	-6383
erved	-6384
▁Second	-6385
▁choking	-6386
▁kittens	-6387
▁lavender	-6388
▁carbohydrates	-6389
acute	-6390
▁Matcha	-6391
▁caff	-6392
▁Smart	-6393
ulate	-6394
▁Okay	-6395
▁push	-6396
▁wafer	-6397
▁impression	-6398
elli	-6399
▁Val	-6400
atisf	-6401
▁Carb	-6402
▁holder	-6403
▁profess	-6404
bsp	-6405
erly	-6406
▁nic	-6407
▁sin	-6408
▁FREE	-6409
▁hamb	-6410
▁truffles	-6411
ntil	-6412
ylab	-6413
▁bra	-6414
▁None	-6415
▁prescription	-6416
mix	-6417
▁preparation	-6418
▁Mr	-6419
▁tastier	-6420
▁exclusively	-6421
▁PR	-6422
▁Acid	-6423
ICIOUS	-6424
▁Almost	-6425
was	-6426
▁Soda	-6427
▁Vita	-6428
▁Smooth	-6429
▁Germany	-6430
opher	-6431
▁Fort	-6432
▁Pumpkin	-6433
cl	-6434
▁NOW	-6435
itta	-6436
gress	-6437
▁Cuisine	-6438
▁Kellogg	-6439
▁capsules	-6440
▁attractive	-6441
oma	-6442
▁Yogi	-6443
▁Found	-6444
▁visiting	-6445
▁bird	-6446
▁vets	-6447
erties	-6448
▁Dried	-6449
asc	-6450
▁Back	-6451
▁yuck	-6452
undred	-6453
▁grate	-6454
▁picking	-6455
▁involved	-6456
IGHT	-6457
▁pad	-6458
▁HIGH	-6459
▁categ	-6460
▁occup	-6461
▁desert	-6462
▁signed	-6463
▁markets	-6464
▁filtered	-6465
outhern	-6466
▁splash	-6467
▁wafers	-6468
azy	-6469
▁Chef	-6470
▁FOOD	-6471
▁tall	-6472
▁ORDER	-6473
▁budget	-6474
etic	-6475
▁restric	-6476
▁greatest	-6477
▁properties	-6478
AB	-6479
eful	-6480
▁gir	-6481
▁Haribo	-6482
▁Orijen	-6483
▁constant	-6484
▁Int	-6485
▁Cere	-6486
▁term	-6487
▁Grand	-6488
▁opportunity	-6489
Then	-6490
▁palm	-6491
▁shells	-6492
▁towards	-6493
▁ordinary	-6494
erate	-6495
▁pred	-6496
▁telling	-6497
iev	-6498
▁lean	-6499
▁faint	-6500
▁Ground	-6501
Co	-6502
▁Ice	-6503
▁fem	-6504
▁incor	-6505
▁disappeared	-6506
fer	-6507
▁Calm	-6508
▁bully	-6509
▁rocks	-6510
▁charges	-6511
▁300	-6512
▁itch	-6513
▁gentle	-6514
eter	-6515
▁sites	-6516
▁convin	-6517
also	-6518
▁seven	-6519
▁raisin	-6520
▁himself	-6521
ICK	-6522
Try	-6523
hetic	-6524
▁crash	-6525
▁Florida	-6526
!),	-6527
apor	-6528
▁pers	-6529
▁shots	-6530
chocolate	-6531
70	-6532
Ing	-6533
▁Licorice	-6534
▁120	-6535
▁por	-6536
somet	-6537
▁Aust	-6538
▁Malt	-6539
▁club	-6540
ending	-6541
▁knock	-6542
▁Columb	-6543
▁indoor	-6544
▁cracked	-6545
▁quarter	-6546
▁advertising	-6547
don	-6548
▁REAL	-6549
▁shipments	-6550
▁hi	-6551
▁Illy	-6552
iskies	-6553
▁Instant	-6554
▁purposes	-6555
tea	-6556
ums	-6557
tail	-6558
▁YOUR	-6559
▁buff	-6560
▁mayo	-6561
▁DELICIOUS	-6562
type	-6563
▁god	-6564
▁poo	-6565
Other	-6566
▁Crack	-6567
▁pastas	-6568
▁stumbled	-6569
▁WE	-6570
▁Used	-6571
▁Vir	-6572
▁Swiss	-6573
▁gonna	-6574
▁Cheddar	-6575
▁sparkling	-6576
▁Either	-6577
▁23	-6578
▁neat	-6579
aching	-6580
▁holes	-6581
▁seaweed	-6582
▁advantage	-6583
',	-6584
▁Bread	-6585
bet	-6586
▁$12	-6587
▁refill	-6588
▁Roasted	-6589
▁shelter	-6590
▁CON	-6591
▁Cans	-6592
▁margar	-6593
▁thumbs	-6594
▁phys	-6595
lfriend	-6596
▁mountain	-6597
▁appropriate	-6598
eck	-6599
ivery	-6600
▁bagged	-6601
▁boiled	-6602
▁feature	-6603
▁thinner	-6604
▁clusters	-6605
▁reviewed	-6606
▁lead	-6607
lusion	-6608
▁soooo	-6609
▁partially	-6610
alia	-6611
▁talk	-6612
▁returning	-6613
arf	-6614
▁relief	-6615
▁teabags	-6616
▁heavenly	-6617
▁ham	-6618
▁Colomb	-6619
▁devour	-6620
▁assumed	-6621
▁primary	-6622
▁Pod	-6623
onsai	-6624
▁hummus	-6625
▁hundred	-6626
▁remains	-6627
▁bathroom	-6628
2">	-6629
▁dirt	-6630
▁occur	-6631
▁UP	-6632
style	-6633
▁muffin	-6634
▁distinctive	-6635
▁electrolytes	-6636
do	-6637
rin	-6638
▁net	-6639
▁sorts	-6640
▁Weruva	-6641
▁absorb	-6642
fam	-6643
ustain	-6644
▁wel	-6645
▁Iced	-6646
▁hubby	-6647
▁Island	-6648
▁leak	-6649
resent	-6650
▁Oreos	-6651
▁flower	-6652
▁keurig	-6653
▁unw	-6654
tight	-6655
▁anticip	-6656
▁cleaned	-6657
▁healthiest	-6658
Taste	-6659
▁final	-6660
▁stayed	-6661
▁complained	-6662
▁necessarily	-6663
maker	-6664
▁senior	-6665
▁largest	-6666
6">	-6667
▁Club	-6668
▁game	-6669
▁alert	-6670
▁mineral	-6671
▁perform	-6672
▁140	-6673
▁appearance	-6674
▁$15	-6675
▁Lots	-6676
▁boxed	-6677
▁causing	-6678
▁whipped	-6679
Unfortunately	-6680
▁Sodium	-6681
▁gelatin	-6682
▁Starb	-6683
▁credit	-6684
▁Crunchy	-6685
kal	-6686
niv	-6687
▁(6	-6688
▁constipation	-6689
si	-6690
IES	-6691
ulin	-6692
▁ear	-6693
▁roo	-6694
attle	-6695
eneful	-6696
▁terribly	-6697
pri	-6698
THER	-6699
abol	-6700
otti	-6701
happy	-6702
hered	-6703
▁Teas	-6704
▁cleans	-6705
▁primarily	-6706
▁rum	-6707
▁salts	-6708
▁outrage	-6709
▁girlfriend	-6710
tr	-6711
wor	-6712
▁Way	-6713
▁mashed	-6714
▁Recently	-6715
▁desserts	-6716
▁boot	-6717
▁Normally	-6718
----------------	-6719
▁(5	-6720
▁joy	-6721
▁competitive	-6722
gery	-6723
▁greenies	-6724
Sh	-6725
▁bubb	-6726
/5	-6727
alsamic	-6728
▁Obviously	-6729
fo	-6730
▁DI	-6731
ayan	-6732
bell	-6733
▁gym	-6734
▁nerv	-6735
believ	-6736
▁Petite	-6737
▁Strong	-6738
▁Tor	-6739
Enjoy	-6740
iskas	-6741
arvest	-6742
▁majority	-6743
▁commented	-6744
vana	-6745
▁Rich	-6746
ective	-6747
▁agreed	-6748
▁weaker	-6749
▁continues	-6750
Total	-6751
osing	-6752
▁Less	-6753
▁Miss	-6754
▁Omega	-6755
▁catnip	-6756
ira	-6757
▁TV	-6758
Some	-6759
book	-6760
▁150	-6761
▁unp	-6762
▁diaper	-6763
▁thicken	-6764
these	-6765
▁Oats	-6766
arse	-6767
thern	-6768
▁toffee	-6769
uary	-6770
▁jer	-6771
▁FROM	-6772
▁meaning	-6773
▁splenda	-6774
ongr	-6775
▁Rais	-6776
▁lazy	-6777
▁magic	-6778
▁nectar	-6779
▁situation	-6780
ano	-6781
▁adequ	-6782
▁enhance	-6783
eded	-6784
Anyway	-6785
▁Tiger	-6786
▁Medium	-6787
▁Tabasco	-6788
▁convinced	-6789
▁rush	-6790
Ingredients	-6791
ECT	-6792
▁bou	-6793
ounced	-6794
ulting	-6795
▁barbec	-6796
▁immune	-6797
▁address	-6798
including	-6799
ept	-6800
istent	-6801
▁Nestle	-6802
▁nervous	-6803
cho	-6804
irect	-6805
▁Cran	-6806
▁cent	-6807
▁chunky	-6808
▁mag	-6809
▁Farm	-6810
▁Iams	-6811
▁Seems	-6812
▁ability	-6813
▁!!	-6814
gard	-6815
ulty	-6816
▁Are	-6817
oving	-6818
▁died	-6819
stit	-6820
health	-6821
▁hotter	-6822
▁sports	-6823
▁explain	-6824
Be	-6825
▁HOT	-6826
▁pea	-6827
▁Fair	-6828
▁Lick	-6829
▁emergency	-6830
▁occasions	-6831
aa	-6832
▁passion	-6833
agine	-6834
▁cacao	-6835
▁scale	-6836
▁Hawaii	-6837
▁Square	-6838
▁contam	-6839
▁chilled	-6840
▁reported	-6841
▁smallest	-6842
▁Purchased	-6843
▁Ag	-6844
tons	-6845
▁eng	-6846
▁foot	-6847
▁tries	-6848
iew	-6849
then	-6850
▁20%	-6851
ishes	-6852
▁Veget	-6853
▁spect	-6854
▁Herbal	-6855
▁burning	-6856
bur	-6857
▁gla	-6858
▁lacks	-6859
▁finely	-6860
▁frequent	-6861
osp	-6862
▁16-	-6863
▁outd	-6864
▁Always	-6865
UE	-6866
▁7-	-6867
▁string	-6868
▁starter	-6869
▁sooner	-6870
▁backpack	-6871
▁schedule	-6872
pa	-6873
butter	-6874
▁handling	-6875
▁intolerant	-6876
erior	-6877
▁poison	-6878
▁potential	-6879
▁concerns	-6880
Nut	-6881
mmm	-6882
▁sits	-6883
▁versus	-6884
▁respect	-6885
zil	-6886
▁acquired	-6887
!)<	-6888
▁vomit	-6889
Su	-6890
▁farm	-6891
▁Doesn	-6892
▁badly	-6893
▁length	-6894
▁leftovers	-6895
Ex	-6896
FC	-6897
▁HU	-6898
▁ho	-6899
usto	-6900
idden	-6901
May	-6902
▁increasing	-6903
▁circ	-6904
▁sink	-6905
▁turning	-6906
▁wedding	-6907
▁Ing	-6908
▁hist	-6909
workers	-6910
▁rooibos	-6911
▁dissolves	-6912
▁virtually	-6913
gu	-6914
astes	-6915
▁avid	-6916
▁knife	-6917
▁omega	-6918
▁squir	-6919
▁stage	-6920
▁nights	-6921
▁Cappuccino	-6922
▁CL	-6923
affy	-6924
▁hey	-6925
icory	-6926
▁hurry	-6927
▁exotic	-6928
load	-6929
ether	-6930
▁West	-6931
▁rise	-6932
▁Within	-6933
▁leaking	-6934
iece	-6935
▁DON	-6936
▁bored	-6937
▁facts	-6938
MY	-6939
INE	-6940
pound	-6941
▁Real	-6942
▁Adult	-6943
▁Besides	-6944
▁moderation	-6945
ains	-6946
▁Tips	-6947
loride	-6948
▁desire	-6949
uick	-6950
▁lift	-6951
▁women	-6952
▁lowest	-6953
.95	-6954
▁jug	-6955
▁error	-6956
▁techn	-6957
▁arthrit	-6958
▁Naturals	-6959
..<	-6960
▁awake	-6961
▁Seed	-6962
ongrass	-6963
▁spiced	-6964
sy	-6965
bac	-6966
lux	-6967
Bottom	-6968
▁chunk	-6969
▁combine	-6970
▁PG	-6971
▁Same	-6972
▁Until	-6973
▁hates	-6974
▁tells	-6975
ccording	-6976
Bl	-6977
tom	-6978
▁Bran	-6979
▁cube	-6980
ibility	-6981
ALL	-6982
store	-6983
▁skip	-6984
▁dirty	-6985
▁rough	-6986
ete	-6987
▁Af	-6988
outs	-6989
▁130	-6990
▁/>3.	-6991
▁Past	-6992
▁taco	-6993
▁tolerance	-6994
▁substantial	-6995
▁ap	-6996
▁choke	-6997
▁Company	-6998
▁steeping	-6999
▁watermelon	-7000
avior	-7001
▁grease	-7002
▁medical	-7003
▁hibiscus	-7004
▁correctly	-7005
▁Cert	-7006
▁nugg	-7007
eacute	-7008
▁giant	-7009
▁swear	-7010
▁providing	-7011
alty	-7012
▁user	-7013
emongrass	-7014
rest	-7015
▁cooker	-7016
▁comprom	-7017
▁Upon	-7018
▁surv	-7019
▁block	-7020
▁female	-7021
▁settle	-7022
▁Arrived	-7023
▁compares	-7024
▁Francisco	-7025
meg	-7026
oster	-7027
▁prob	-7028
▁juicy	-7029
▁Pretty	-7030
▁addict	-7031
▁Pockets	-7032
▁powders	-7033
SO	-7034
▁GO	-7035
▁Pa	-7036
usse	-7037
▁King	-7038
▁Must	-7039
▁gummi	-7040
▁planning	-7041
edy	-7042
yro	-7043
count	-7044
▁legs	-7045
▁contro	-7046
▁surgery	-7047
▁Inc	-7048
▁cuts	-7049
▁dash	-7050
▁Cereal	-7051
▁invent	-7052
ANY	-7053
pons	-7054
ients	-7055
▁silky	-7056
▁Seattle	-7057
▁checking	-7058
▁regarding	-7059
▁Melitta	-7060
▁overwhelm	-7061
ael	-7062
▁ste	-7063
▁Gener	-7064
▁named	-7065
osamine	-7066
▁Garlic	-7067
▁leaked	-7068
▁reactions	-7069
▁Cups	-7070
▁sustain	-7071
▁Peppermint	-7072
OUGH	-7073
agle	-7074
omend	-7075
▁steam	-7076
▁potent	-7077
▁miracle	-7078
▁sellers	-7079
▁Meal	-7080
▁vide	-7081
evalia	-7082
▁ris	-7083
▁antib	-7084
▁resemb	-7085
estyle	-7086
▁outer	-7087
▁behavior	-7088
▁excessive	-7089
▁Kong	-7090
▁stuffed	-7091
▁glycemic	-7092
▁leftover	-7093
cy	-7094
ols	-7095
odor	-7096
abisco	-7097
▁Sadly	-7098
▁minty	-7099
atorade	-7100
▁caffeinated	-7101
▁ensure	-7102
▁impact	-7103
▁ripped	-7104
▁manufactured	-7105
▁ow	-7106
▁max	-7107
atory	-7108
▁terrier	-7109
▁dissapointed	-7110
ran	-7111
see	-7112
aser	-7113
▁fal	-7114
ribute	-7115
▁display	-7116
▁annoying	-7117
OUR	-7118
▁unn	-7119
iscotti	-7120
▁Beneful	-7121
▁$30	-7122
▁Eth	-7123
▁view	-7124
▁cycle	-7125
▁bolder	-7126
▁barbecue	-7127
▁grateful	-7128
▁hang	-7129
▁indust	-7130
▁remark	-7131
▁Granola	-7132
)...	-7133
Even	-7134
▁tac	-7135
ronic	-7136
▁tube	-7137
▁carpet	-7138
▁tartar	-7139
▁metabol	-7140
unate	-7141
▁HUGE	-7142
eaking	-7143
▁sciss	-7144
▁sharing	-7145
▁imported	-7146
▁comfortable	-7147
▁researching	-7148
0">	-7149
gue	-7150
RONG	-7151
▁soil	-7152
itters	-7153
▁crema	-7154
▁celery	-7155
▁comparing	-7156
.75	-7157
4">	-7158
▁GET	-7159
▁Small	-7160
▁remin	-7161
eat	-7162
▁tops	-7163
mother	-7164
▁Select	-7165
YI	-7166
▁hull	-7167
▁moth	-7168
oodles	-7169
pected	-7170
▁depth	-7171
▁pistach	-7172
▁Rain	-7173
▁chow	-7174
kn	-7175
▁Sol	-7176
▁ages	-7177
▁durable	-7178
zo	-7179
lower	-7180
▁cass	-7181
▁adore	-7182
▁train	-7183
/1	-7184
oday	-7185
....<	-7186
▁Taco	-7187
▁Using	-7188
▁Garden	-7189
ocker	-7190
comfort	-7191
▁kosher	-7192
▁Grocery	-7193
▁recomend	-7194
alled	-7195
ppers	-7196
▁licks	-7197
▁inedible	-7198
8">	-7199
arby	-7200
▁15%	-7201
▁pun	-7202
▁canola	-7203
▁Ult	-7204
▁mildly	-7205
▁harmful	-7206
▁conscious	-7207
)!	-7208
oct	-7209
random	-7210
▁Clear	-7211
▁cheesy	-7212
EVER	-7213
▁Hel	-7214
▁lets	-7215
▁Himal	-7216
▁factory	-7217
▁Watchers	-7218
▁tropical	-7219
▁aid	-7220
▁Belg	-7221
▁corner	-7222
▁gobble	-7223
▁Honestly	-7224
DI	-7225
▁sle	-7226
▁Creme	-7227
▁woman	-7228
▁accurate	-7229
▁grapefruit	-7230
▁recommends	-7231
OK	-7232
AYS	-7233
pre	-7234
▁TI	-7235
Pros	-7236
▁pups	-7237
▁poodle	-7238
▁sensit	-7239
▁powdery	-7240
▁category	-7241
giving	-7242
▁linger	-7243
▁lollipops	-7244
New	-7245
▁10%	-7246
▁dim	-7247
▁chef	-7248
▁kcups	-7249
▁Toffee	-7250
▁macaroni	-7251
tra	-7252
▁TW	-7253
▁1-2	-7254
otton	-7255
▁Unless	-7256
▁pressed	-7257
▁identical	-7258
span	-7259
▁Bed	-7260
▁Hab	-7261
MG	-7262
GAR	-7263
ami	-7264
ksh	-7265
cream	-7266
opened	-7267
▁Snack	-7268
▁settled	-7269
▁overweight	-7270
sn	-7271
▁ep	-7272
▁lines	-7273
enne	-7274
inst	-7275
▁Stars	-7276
ait	-7277
▁lists	-7278
▁safety	-7279
▁beneficial	-7280
▁shortbread	-7281
?"	-7282
SH	-7283
put	-7284
fruit	-7285
▁mile	-7286
umbers	-7287
▁purple	-7288
▁function	-7289
uz	-7290
,000	-7291
omen	-7292
▁Sour	-7293
▁tract	-7294
▁reminisc	-7295
ati	-7296
uns	-7297
ners	-7298
▁film	-7299
▁citric	-7300
emp	-7301
▁fi	-7302
▁basil	-7303
▁lactose	-7304
▁steamed	-7305
▁suitable	-7306
da	-7307
itas	-7308
▁BIG	-7309
▁lie	-7310
lling	-7311
▁Virgin	-7312
▁clumps	-7313
▁Luckily	-7314
ltry	-7315
▁walked	-7316
▁measuring	-7317
ilac	-7318
▁TEA	-7319
▁carrot	-7320
▁ruined	-7321
▁Shepherd	-7322
EM	-7323
acy	-7324
▁110	-7325
▁sleeping	-7326
▁eld	-7327
▁synt	-7328
▁quart	-7329
unky	-7330
grain	-7331
inter	-7332
▁fulf	-7333
▁saff	-7334
▁profile	-7335
▁satisfaction	-7336
ups	-7337
odka	-7338
iring	-7339
▁Cris	-7340
▁Fish	-7341
▁dandruff	-7342
▁impressive	-7343
OY	-7344
kins	-7345
▁yrs	-7346
▁Note	-7347
▁random	-7348
▁Gevalia	-7349
URE	-7350
▁soc	-7351
*****	-7352
allic	-7353
▁buyer	-7354
▁Starbuck	-7355
inny	-7356
size	-7357
▁July	-7358
▁unex	-7359
▁roughly	-7360
▁$0	-7361
▁2)</	-7362
▁Lind	-7363
▁Flour	-7364
▁whose	-7365
ALT	-7366
burn	-7367
▁ore	-7368
ibbles	-7369
▁Ounce	-7370
▁acids	-7371
▁jumped	-7372
▁herself	-7373
▁chocolaty	-7374
▁collection	-7375
▁refuse	-7376
▁British	-7377
while	-7378
▁costly	-7379
▁grinding	-7380
▁medications	-7381
itos	-7382
▁Jamaica	-7383
▁experimenting	-7384
mary	-7385
▁pell	-7386
▁force	-7387
▁stret	-7388
▁trial	-7389
▁expire	-7390
▁gobbled	-7391
att	-7392
best	-7393
▁spots	-7394
▁reflux	-7395
▁bedtime	-7396
▁department	-7397
EF	-7398
▁gn	-7399
aces	-7400
▁dig	-7401
▁land	-7402
▁resulting	-7403
***	-7404
imer	-7405
juice	-7406
▁city	-7407
▁lock	-7408
▁Grove	-7409
▁truth	-7410
ordered	-7411
▁chalky	-7412
▁doggie	-7413
▁failed	-7414
▁itching	-7415
▁alkal	-7416
▁occupied	-7417
CA	-7418
new	-7419
pro	-7420
▁Cy	-7421
nova	-7422
▁Jan	-7423
▁belie	-7424
▁exist	-7425
▁sadly	-7426
▁nearby	-7427
▁lattes	-7428
▁dispenser	-7429
ped	-7430
▁$$	-7431
▁El	-7432
▁Old	-7433
▁Main	-7434
▁arrival	-7435
▁brittle	-7436
▁kidding	-7437
look	-7438
▁COM	-7439
▁nowhere	-7440
▁surface	-7441
▁suddenly	-7442
▁peppercorn	-7443
cut	-7444
▁blow	-7445
▁jack	-7446
▁strict	-7447
▁scissors	-7448
▁Colombian	-7449
▁ox	-7450
anth	-7451
ette	-7452
ioca	-7453
▁Take	-7454
▁everybody	-7455
▁preparing	-7456
▁chest	-7457
▁emb	-7458
▁diced	-7459
▁plump	-7460
▁snaps	-7461
▁pecans	-7462
ERS	-7463
Yes	-7464
▁teabag	-7465
▁emailed	-7466
ras	-7467
▁Av	-7468
▁Har	-7469
▁ven	-7470
grade	-7471
▁Alas	-7472
usable	-7473
▁public	-7474
▁Nutrition	-7475
▁arthritis	-7476
80	-7477
▁Cra	-7478
orter	-7479
▁Yeah	-7480
Natural	-7481
▁Despite	-7482
uer	-7483
mans	-7484
▁European	-7485
▁Up	-7486
▁thri	-7487
▁gotta	-7488
▁pictures	-7489
▁flo	-7490
▁Velve	-7491
▁tacos	-7492
▁Anyone	-7493
▁falling	-7494
▁reviewing	-7495
omer	-7496
otch	-7497
ummer	-7498
▁Part	-7499
▁joke	-7500
▁pregnant	-7501
▁Da	-7502
chew	-7503
▁Lamb	-7504
▁pestic	-7505
▁Friskies	-7506
▁stirring	-7507
▁Dad	-7508
▁tow	-7509
▁kits	-7510
▁novel	-7511
▁Little	-7512
▁cancel	-7513
▁waited	-7514
Ser	-7515
ylon	-7516
▁Par	-7517
▁fear	-7518
▁Smell	-7519
▁saute	-7520
▁tempted	-7521
▁adequate	-7522
▁reminiscent	-7523
eng	-7524
diet	-7525
uddy	-7526
▁Kool	-7527
▁born	-7528
▁Belly	-7529
▁board	-7530
▁Nabisco	-7531
▁encourage	-7532
▁;)	-7533
ESOME	-7534
ailand	-7535
ensity	-7536
▁sooooo	-7537
▁Fortunately	-7538
▁er	-7539
▁Roo	-7540
▁chick	-7541
▁veter	-7542
▁smelly	-7543
▁ded	-7544
▁Magnesium	-7545
ALLY	-7546
▁funky	-7547
▁Banana	-7548
▁asleep	-7549
-2	-7550
bow	-7551
eds	-7552
airy	-7553
▁Non	-7554
▁Pets	-7555
ildren	-7556
▁soaked	-7557
▁history	-7558
▁Root	-7559
▁bugs	-7560
▁solids	-7561
▁tightly	-7562
ACT	-7563
OUT	-7564
▁cry	-7565
▁DOES	-7566
▁yeah	-7567
ension	-7568
▁falls	-7569
▁manage	-7570
▁marked	-7571
▁squirt	-7572
▁closely	-7573
▁gummies	-7574
▁related	-7575
▁treated	-7576
▁appeared	-7577
▁treatment	-7578
ione	-7579
▁lids	-7580
▁degree	-7581
:)	-7582
▁deter	-7583
▁decaffeinated	-7584
▁bb	-7585
▁ale	-7586
▁rev	-7587
velope	-7588
▁reput	-7589
▁crisps	-7590
▁steeped	-7591
▁neighborhood	-7592
idge	-7593
▁sulf	-7594
▁deals	-7595
packaged	-7596
▁Cheerios	-7597
▁considerably	-7598
VEN	-7599
ees	-7600
nam	-7601
▁jo	-7602
▁dips	-7603
▁perf	-7604
▁Brazil	-7605
▁calling	-7606
Will	-7607
auce	-7608
bold	-7609
rich	-7610
illon	-7611
▁owned	-7612
▁advise	-7613
has	-7614
uing	-7615
▁VIA	-7616
▁law	-7617
▁whom	-7618
bility	-7619
▁Raisin	-7620
▁Austral	-7621
▁Kee	-7622
▁host	-7623
▁Donuts	-7624
aporated	-7625
▁mate	-7626
▁pulp	-7627
▁Review	-7628
▁expense	-7629
▁Jalapeno	-7630
▁roasting	-7631
▁unbeliev	-7632
▁spearmint	-7633
itz	-7634
ears	-7635
▁frying	-7636
▁inferior	-7637
▁complaining	-7638
▁IM	-7639
▁eth	-7640
erine	-7641
ittery	-7642
▁obtain	-7643
▁regardless	-7644
/12	-7645
▁HAS	-7646
▁cure	-7647
▁unbe	-7648
▁phone	-7649
▁Imagine	-7650
▁placing	-7651
▁surprising	-7652
▁Oct	-7653
ithin	-7654
▁Camp	-7655
▁mask	-7656
▁rabb	-7657
▁shaker	-7658
▁burgers	-7659
▁Thailand	-7660
????	-7661
half	-7662
▁Hor	-7663
▁unf	-7664
▁pace	-7665
ppings	-7666
▁reluct	-7667
▁Delight	-7668
▁fondant	-7669
▁flavorless	-7670
▁substitutes	-7671
90	-7672
hard	-7673
▁bark	-7674
▁cafe	-7675
▁image	-7676
▁cowork	-7677
▁refrigeration	-7678
▁DOG	-7679
▁Exp	-7680
▁morse	-7681
▁manufact	-7682
▁lemongrass	-7683
▁differently	-7684
Each	-7685
aired	-7686
▁zing	-7687
assion	-7688
change	-7689
▁Smoke	-7690
▁Columbian	-7691
▁bbq	-7692
▁researched	-7693
Of	-7694
ields	-7695
▁Petco	-7696
▁motiv	-7697
▁Hallow	-7698
▁indulg	-7699
▁UK	-7700
▁Jim	-7701
▁Pep	-7702
▁Van	-7703
rabica	-7704
▁licked	-7705
▁driving	-7706
▁wonders	-7707
▁metallic	-7708
▁HE	-7709
▁4.5	-7710
▁Cut	-7711
▁Lou	-7712
tomax	-7713
▁supposedly	-7714
▁moisturizer	-7715
iop	-7716
uine	-7717
▁fav	-7718
▁ferment	-7719
▁minimum	-7720
meat	-7721
▁tag	-7722
ecithin	-7723
▁carniv	-7724
▁marketed	-7725
ucket	-7726
▁Path	-7727
▁nuggets	-7728
▁tonight	-7729
▁Calories	-7730
▁thankful	-7731
AK	-7732
gluten	-7733
▁coarse	-7734
▁finest	-7735
▁Classic	-7736
▁lentils	-7737
aver	-7738
oila	-7739
CO	-7740
▁GI	-7741
▁---	-7742
▁Cap	-7743
▁Fam	-7744
▁HAD	-7745
▁Rem	-7746
▁wings	-7747
▁fourth	-7748
yr	-7749
INT	-7750
▁rele	-7751
▁brewers	-7752
▁coupons	-7753
▁flaxseed	-7754
▁fraction	-7755
▁guessing	-7756
rose	-7757
▁choc	-7758
▁Where	-7759
▁Cookie	-7760
▁bacter	-7761
▁roller	-7762
▁needing	-7763
Do	-7764
mah	-7765
▁ach	-7766
▁Right	-7767
▁notch	-7768
▁showing	-7769
EAN	-7770
ogs	-7771
▁DIS	-7772
▁hosp	-7773
ification	-7774
▁reliable	-7775
iety	-7776
▁4-5	-7777
▁DHA	-7778
▁Core	-7779
▁bank	-7780
▁focus	-7781
▁matters	-7782
▁wasting	-7783
▁essentially	-7784
WE	-7785
INK	-7786
▁Rep	-7787
▁Should	-7788
▁record	-7789
▁walking	-7790
▁whereas	-7791
zze	-7792
▁!!!	-7793
▁stead	-7794
▁France	-7795
▁virgin	-7796
);	-7797
NOT	-7798
▁Mrs	-7799
▁OUT	-7800
▁....	-7801
inners	-7802
▁Canin	-7803
▁SUGAR	-7804
▁disag	-7805
▁tablets	-7806
▁richness	-7807
▁Ed	-7808
▁bi	-7809
anch	-7810
▁Ret	-7811
▁Three	-7812
▁laugh	-7813
▁visited	-7814
▁envelope	-7815
Che	-7816
ping	-7817
ledge	-7818
▁Rock	-7819
▁gast	-7820
uality	-7821
▁deodor	-7822
▁dumped	-7823
▁Habanero	-7824
▁unopened	-7825
▁daughters	-7826
ormal	-7827
▁famous	-7828
▁cleaner	-7829
▁Mad	-7830
alian	-7831
▁frag	-7832
▁forced	-7833
▁Extract	-7834
▁parties	-7835
▁Fantastic	-7836
gies	-7837
wood	-7838
▁Bac	-7839
Sweet	-7840
eware	-7841
▁Cake	-7842
▁Star	-7843
espresso	-7844
▁Country	-7845
▁chicory	-7846
▁complement	-7847
ala	-7848
love	-7849
▁OMG	-7850
shund	-7851
▁SOME	-7852
▁Liver	-7853
▁heating	-7854
▁staying	-7855
inos	-7856
▁Bre	-7857
▁bell	-7858
▁sets	-7859
▁edges	-7860
Vitamin	-7861
▁bringing	-7862
▁transfer	-7863
▁Halloween	-7864
▁Cas	-7865
▁Ram	-7866
▁Via	-7867
▁joe	-7868
▁pung	-7869
▁Michael	-7870
▁convent	-7871
▁associated	-7872
▁manufacturing	-7873
OOK	-7874
loc	-7875
▁useless	-7876
▁Compared	-7877
▁cheesec	-7878
▁filters	-7879
▁frankly	-7880
▁Apparently	-7881
▁sufficient	-7882
itis	-7883
▁Didn	-7884
▁Might	-7885
▁groceries	-7886
▁thickness	-7887
anish	-7888
Organic	-7889
▁intend	-7890
▁lifestyle	-7891
▁sensation	-7892
▁33	-7893
▁DV	-7894
▁mole	-7895
▁Tempt	-7896
▁breaks	-7897
▁flours	-7898
▁outrageous	-7899
Cr	-7900
orge	-7901
rika	-7902
▁pra	-7903
igest	-7904
▁toothp	-7905
▁AWESOME	-7906
▁heavily	-7907
▁qualities	-7908
avor	-7909
high	-7910
▁Tot	-7911
▁blad	-7912
everal	-7913
ickory	-7914
▁March	-7915
▁Mexico	-7916
▁secure	-7917
▁poultry	-7918
▁	-7919
e	-7920
t	-7921
a	-7922
o	-7923
i	-7924
s	-7925
r	-7926
n	-7927
h	-7928
l	-7929
d	-7930
u	-7931
c	-7932
f	-7933
m	-7934
y	-7935
g	-7936
b	-7937
p	-7938
w	-7939
.	-7940
v	-7941
I	-7942
k	-7943
,	-7944
'	-7945
T	-7946
/	-7947
>	-7948
<	-7949
A	-7950
!	-7951
-	-7952
x	-7953
S	-7954
j	-7955
z	-7956
O	-7957
E	-7958
C	-7959
B	-7960
M	-7961
"	-7962
W	-7963
N	-7964
)	-7965
H	-7966
(	-7967
0	-7968
P	-7969
1	-7970
G	-7971
L	-7972
D	-7973
R	-7974
F	-7975
q	-7976
2	-7977
Y	-7978
5	-7979
K	-7980
V	-7981
U	-7982
3	-7983
:	-7984
4	-7985
J	-7986
6	-7987
?	-7988
&	-7989
$	-7990
8	-7991
9	-7992
;	-7993
7	-7994
*	-7995
%	-7996
